{
  "version": "1.0",
  "truncation": null,
  "padding": null,
  "added_tokens": [
    {
      "id": 0,
      "content": "[PAD]",
      "single_word": false,
      "lstrip": false,
      "rstrip": false,
      "normalized": false,
      "special": true
    },
    {
      "id": 1,
      "content": "[SOS]",
      "single_word": false,
      "lstrip": false,
      "rstrip": false,
      "normalized": false,
      "special": true
    },
    {
      "id": 2,
      "content": "[EOS]",
      "single_word": false,
      "lstrip": false,
      "rstrip": false,
      "normalized": false,
      "special": true
    },
    {
      "id": 3,
      "content": "[UNK]",
      "single_word": false,
      "lstrip": false,
      "rstrip": false,
      "normalized": false,
      "special": true
    }
  ],
  "normalizer": null,
  "pre_tokenizer": {
    "type": "ByteLevel",
    "add_prefix_space": false,
    "trim_offsets": true,
    "use_regex": true
  },
  "post_processor": {
    "type": "ByteLevel",
    "add_prefix_space": true,
    "trim_offsets": false,
    "use_regex": true
  },
  "decoder": {
    "type": "ByteLevel",
    "add_prefix_space": true,
    "trim_offsets": true,
    "use_regex": true
  },
  "model": {
    "type": "BPE",
    "dropout": null,
    "unk_token": null,
    "continuing_subword_prefix": null,
    "end_of_word_suffix": null,
    "fuse_unk": false,
    "byte_fallback": false,
    "ignore_merges": false,
    "vocab": {
      "[PAD]": 0,
      "[SOS]": 1,
      "[EOS]": 2,
      "[UNK]": 3,
      "!": 4,
      "\"": 5,
      "#": 6,
      "$": 7,
      "%": 8,
      "&": 9,
      "'": 10,
      "(": 11,
      ")": 12,
      "*": 13,
      "+": 14,
      ",": 15,
      "-": 16,
      ".": 17,
      "/": 18,
      "0": 19,
      "1": 20,
      "2": 21,
      "3": 22,
      "4": 23,
      "5": 24,
      "6": 25,
      "7": 26,
      "8": 27,
      "9": 28,
      ":": 29,
      ";": 30,
      "<": 31,
      "=": 32,
      ">": 33,
      "?": 34,
      "@": 35,
      "A": 36,
      "B": 37,
      "C": 38,
      "D": 39,
      "E": 40,
      "F": 41,
      "G": 42,
      "H": 43,
      "I": 44,
      "J": 45,
      "K": 46,
      "L": 47,
      "M": 48,
      "N": 49,
      "O": 50,
      "P": 51,
      "Q": 52,
      "R": 53,
      "S": 54,
      "T": 55,
      "U": 56,
      "V": 57,
      "W": 58,
      "X": 59,
      "Y": 60,
      "Z": 61,
      "[": 62,
      "\\": 63,
      "]": 64,
      "^": 65,
      "_": 66,
      "`": 67,
      "a": 68,
      "b": 69,
      "c": 70,
      "d": 71,
      "e": 72,
      "f": 73,
      "g": 74,
      "h": 75,
      "i": 76,
      "j": 77,
      "k": 78,
      "l": 79,
      "m": 80,
      "n": 81,
      "o": 82,
      "p": 83,
      "q": 84,
      "r": 85,
      "s": 86,
      "t": 87,
      "u": 88,
      "v": 89,
      "w": 90,
      "x": 91,
      "y": 92,
      "z": 93,
      "{": 94,
      "|": 95,
      "}": 96,
      "~": 97,
      "¡": 98,
      "¢": 99,
      "£": 100,
      "¤": 101,
      "¥": 102,
      "¦": 103,
      "§": 104,
      "¨": 105,
      "©": 106,
      "ª": 107,
      "«": 108,
      "¬": 109,
      "®": 110,
      "¯": 111,
      "°": 112,
      "±": 113,
      "²": 114,
      "³": 115,
      "´": 116,
      "µ": 117,
      "¶": 118,
      "·": 119,
      "¸": 120,
      "¹": 121,
      "º": 122,
      "»": 123,
      "¼": 124,
      "½": 125,
      "¾": 126,
      "¿": 127,
      "À": 128,
      "Á": 129,
      "Â": 130,
      "Ã": 131,
      "Ä": 132,
      "Å": 133,
      "Æ": 134,
      "Ç": 135,
      "È": 136,
      "É": 137,
      "Ê": 138,
      "Ë": 139,
      "Ì": 140,
      "Í": 141,
      "Î": 142,
      "Ï": 143,
      "Ð": 144,
      "Ñ": 145,
      "Ò": 146,
      "Ó": 147,
      "Ô": 148,
      "Õ": 149,
      "Ö": 150,
      "×": 151,
      "Ø": 152,
      "Ù": 153,
      "Ú": 154,
      "Û": 155,
      "Ü": 156,
      "Ý": 157,
      "Þ": 158,
      "ß": 159,
      "à": 160,
      "á": 161,
      "â": 162,
      "ã": 163,
      "ä": 164,
      "å": 165,
      "æ": 166,
      "ç": 167,
      "è": 168,
      "é": 169,
      "ê": 170,
      "ë": 171,
      "ì": 172,
      "í": 173,
      "î": 174,
      "ï": 175,
      "ð": 176,
      "ñ": 177,
      "ò": 178,
      "ó": 179,
      "ô": 180,
      "õ": 181,
      "ö": 182,
      "÷": 183,
      "ø": 184,
      "ù": 185,
      "ú": 186,
      "û": 187,
      "ü": 188,
      "ý": 189,
      "þ": 190,
      "ÿ": 191,
      "Ā": 192,
      "ā": 193,
      "Ă": 194,
      "ă": 195,
      "Ą": 196,
      "ą": 197,
      "Ć": 198,
      "ć": 199,
      "Ĉ": 200,
      "ĉ": 201,
      "Ċ": 202,
      "ċ": 203,
      "Č": 204,
      "č": 205,
      "Ď": 206,
      "ď": 207,
      "Đ": 208,
      "đ": 209,
      "Ē": 210,
      "ē": 211,
      "Ĕ": 212,
      "ĕ": 213,
      "Ė": 214,
      "ė": 215,
      "Ę": 216,
      "ę": 217,
      "Ě": 218,
      "ě": 219,
      "Ĝ": 220,
      "ĝ": 221,
      "Ğ": 222,
      "ğ": 223,
      "Ġ": 224,
      "ġ": 225,
      "Ģ": 226,
      "ģ": 227,
      "Ĥ": 228,
      "ĥ": 229,
      "Ħ": 230,
      "ħ": 231,
      "Ĩ": 232,
      "ĩ": 233,
      "Ī": 234,
      "ī": 235,
      "Ĭ": 236,
      "ĭ": 237,
      "Į": 238,
      "į": 239,
      "İ": 240,
      "ı": 241,
      "Ĳ": 242,
      "ĳ": 243,
      "Ĵ": 244,
      "ĵ": 245,
      "Ķ": 246,
      "ķ": 247,
      "ĸ": 248,
      "Ĺ": 249,
      "ĺ": 250,
      "Ļ": 251,
      "ļ": 252,
      "Ľ": 253,
      "ľ": 254,
      "Ŀ": 255,
      "ŀ": 256,
      "Ł": 257,
      "ł": 258,
      "Ń": 259,
      "à¤": 260,
      "Ġà¤": 261,
      "à¥": 262,
      "à¤¾": 263,
      "à¤°": 264,
      "à¥ĩ": 265,
      "à¥į": 266,
      "à¤¿": 267,
      "Ġà¤ķ": 268,
      "à¤Ĥ": 269,
      "à¤¨": 270,
      "à¥Ģ": 271,
      "à¤¤": 272,
      "Ġt": 273,
      "à¤ķ": 274,
      "à¥ĭ": 275,
      "he": 276,
      "à¤¯": 277,
      "Ġa": 278,
      "à¤¸": 279,
      "Ġà¤¹": 280,
      "Ġà¤¸": 281,
      "à¤®": 282,
      "in": 283,
      "à¤¹": 284,
      "à¤²": 285,
      "Ġthe": 286,
      "Ġo": 287,
      "à¥ģ": 288,
      "re": 289,
      "Ġà¤ª": 290,
      "à¥Ī": 291,
      "à¤µ": 292,
      "Ġà¤®": 293,
      "à¤¦": 294,
      "er": 295,
      "à¤ª": 296,
      "Ġs": 297,
      "nd": 298,
      "at": 299,
      "on": 300,
      "Ġw": 301,
      "à¤Ĺ": 302,
      "is": 303,
      "à¥ĩà¤Ĥ": 304,
      "Ġà¤ľ": 305,
      "en": 306,
      "Ġof": 307,
      "it": 308,
      "Ġà¤ħ": 309,
      "Ġc": 310,
      "Ġà¤µ": 311,
      "or": 312,
      "Ġà¤¨": 313,
      "es": 314,
      "Ġb": 315,
      "ed": 316,
      "Ġf": 317,
      "ou": 318,
      "Ġp": 319,
      "à¤ľ": 320,
      "an": 321,
      "à¥ĭà¤Ĥ": 322,
      "Ġà¤¬": 323,
      "à¤¼": 324,
      "à¥Ĥ": 325,
      "ĠĊ": 326,
      "al": 327,
      "ar": 328,
      "Ġà¤¦": 329,
      "Ġà¤¤": 330,
      "Ġà¤ī": 331,
      "Ġin": 332,
      "à¤¶": 333,
      "à¥¤": 334,
      "à¤¬": 335,
      "Ġà¤²": 336,
      "Ķà¤°": 337,
      "Ġand": 338,
      "à¤Ł": 339,
      "ing": 340,
      "Ġto": 341,
      "Ġm": 342,
      "ion": 343,
      "à¤ı": 344,
      "Ġd": 345,
      "à¤§": 346,
      "Ġà¤°": 347,
      "à¤·": 348,
      "Ġà¤Ķà¤°": 349,
      "Ġh": 350,
      "Ġà¤ķà¤°": 351,
      "à¤ļ": 352,
      "as": 353,
      "ic": 354,
      "le": 355,
      "à¤¡": 356,
      "om": 357,
      "Ġth": 358,
      "à¤¥": 359,
      "Ġà¤Ĩ": 360,
      "ent": 361,
      "Ġ(": 362,
      "ll": 363,
      "à¤£": 364,
      "Ġn": 365,
      "Ġà¤Ń": 366,
      "Ġà¤¯": 367,
      "à¤ĸ": 368,
      "Ġbe": 369,
      "ve": 370,
      "Ġà¤Ĺ": 371,
      "Ġe": 372,
      "ct": 373,
      "à¤Ń": 374,
      "Ġis": 375,
      "Ġre": 376,
      "Ġà¤ªà¤°": 377,
      "à¥Īà¤Ĥ": 378,
      "ro": 379,
      "Ġl": 380,
      "st": 381,
      "Ġà¤ĩ": 382,
      "ot": 383,
      "ut": 384,
      "Ġg": 385,
      "Ġy": 386,
      "se": 387,
      "id": 388,
      "Ġà¤ı": 389,
      "Ġfor": 390,
      "im": 391,
      "ation": 392,
      "Ġà¤ļ": 393,
      "ur": 394,
      "ly": 395,
      "à¤Ī": 396,
      "ce": 397,
      "ad": 398,
      "ay": 399,
      "Ġwh": 400,
      "am": 401,
      "Ġà¤¶": 402,
      "ver": 403,
      "ĠA": 404,
      "Ġà¤īà¤¨": 405,
      "à¤°à¤¤": 406,
      "The": 407,
      "à¥Īà¥¤": 408,
      "Ġyou": 409,
      "ow": 410,
      "Ġu": 411,
      "Ġon": 412,
      "ĠI": 413,
      "à¤«": 414,
      "à¥Ģà¤Ĥ": 415,
      "ĠS": 416,
      "et": 417,
      "à¤ªà¤¨": 418,
      "Ġà¤īà¤¸": 419,
      "ir": 420,
      "Ġà¤¥": 421,
      "il": 422,
      "Ġà¤ĸ": 423,
      "âĢ": 424,
      "à¤ĩ": 425,
      "Ġà¤ıà¤ķ": 426,
      "ig": 427,
      "Ġ-": 428,
      "Ġthat": 429,
      "ch": 430,
      "Ġà¤¸à¤®": 431,
      "Ġ1": 432,
      "à¤¾à¤Ĥ": 433,
      "Ġà¤¨à¤¹": 434,
      "Ġà¤ĩà¤¸": 435,
      "Ġhe": 436,
      "ol": 437,
      "ment": 438,
      "Ġit": 439,
      "ith": 440,
      "à¤ģ": 441,
      "à¤Ľ": 442,
      "ra": 443,
      "Ġas": 444,
      "ĠM": 445,
      "Ġan": 446,
      "ill": 447,
      "od": 448,
      "Ġor": 449,
      "Ġà¤ķà¤°à¤¨": 450,
      "à¥ĥ": 451,
      "ĠC": 452,
      "à¥Į": 453,
      "Ġnot": 454,
      "if": 455,
      "ĠP": 456,
      "ter": 457,
      "à¤ħ": 458,
      "Ġà¤«": 459,
      "ul": 460,
      "Ġà¤°à¤¹": 461,
      "Ġst": 462,
      "Ġwith": 463,
      "ess": 464,
      "à¤ķà¤°": 465,
      "Ġare": 466,
      "her": 467,
      "ri": 468,
      "Ġà¤ħà¤ªà¤¨": 469,
      "ge": 470,
      "Ġpro": 471,
      "Ġà¤¹à¤®": 472,
      "Ġha": 473,
      "à¤°à¤ķ": 474,
      "Ġde": 475,
      "Ġ'": 476,
      "ĠH": 477,
      "ab": 478,
      "Ġà¤ħà¤¨": 479,
      "ate": 480,
      "Ġwe": 481,
      "ld": 482,
      "Ġcon": 483,
      "à¤¼à¤¾": 484,
      "Ġsu": 485,
      "op": 486,
      "rom": 487,
      "Ġse": 488,
      "th": 489,
      "res": 490,
      "ĠB": 491,
      "à¤Ĩ": 492,
      "ers": 493,
      "à¤¾à¥¤": 494,
      "à¤ķà¤¤": 495,
      "Ġà¤¯à¤¹": 496,
      "ak": 497,
      "Ġà¤µà¤¹": 498,
      "ĠG": 499,
      "ht": 500,
      "ist": 501,
      "Ġby": 502,
      "nt": 503,
      "Ġwas": 504,
      "and": 505,
      "Ġcom": 506,
      "à¤ł": 507,
      "à¤°à¤£": 508,
      "pe": 509,
      "Ġ2": 510,
      "ain": 511,
      "Ġsh": 512,
      "Ġà¤ķà¤°à¤¤": 513,
      "ity": 514,
      "Ġà¤ħà¤§": 515,
      "Ġhave": 516,
      "iv": 517,
      "Ġfrom": 518,
      "à¤ī": 519,
      "us": 520,
      "em": 521,
      "est": 522,
      "Ġà¤īà¤¨à¤ķ": 523,
      "all": 524,
      "à¤ĵ": 525,
      "Ġex": 526,
      "Ġthey": 527,
      "Ġà¤ķà¤¹": 528,
      "Ġthem": 529,
      "Ġwill": 530,
      "à¤µà¤°": 531,
      "Ġ.": 532,
      "à¤¤à¤°": 533,
      "ĠâĢ": 534,
      "ĠR": 535,
      "ĠD": 536,
      "Ġv": 537,
      "Ġk": 538,
      "Ġthis": 539,
      "Ġà¤Ĺà¤¯": 540,
      "ore": 541,
      "ah": 542,
      "ich": 543,
      "ac": 544,
      "Ġwho": 545,
      "um": 546,
      "ant": 547,
      "ive": 548,
      "ĠT": 549,
      "à¤ªà¤°": 550,
      "Ġà¤¬à¤¨": 551,
      "ie": 552,
      "qu": 553,
      "à¤¾,": 554,
      "ĠL": 555,
      "art": 556,
      "un": 557,
      "ies": 558,
      "pp": 559,
      "à¥Ī,": 560,
      "Ġhas": 561,
      "ction": 562,
      "os": 563,
      "Ġr": 564,
      "Ġ,": 565,
      "Ġat": 566,
      "ĠW": 567,
      "ure": 568,
      "Ġà¤īà¤¸à¤ķ": 569,
      "à¤¯à¤ķ": 570,
      "ia": 571,
      "Ġwhich": 572,
      "ort": 573,
      "Ãł": 574,
      "ould": 575,
      "el": 576,
      "Ġne": 577,
      "Ġà¤¡": 578,
      "ĠInd": 579,
      "à¤ľà¤¨": 580,
      "à¤¿à¤Ĥ": 581,
      "à¤Ķà¤°": 582,
      "Ġà¤¸à¤ķà¤¤": 583,
      "ind": 584,
      "00": 585,
      "our": 586,
      "oc": 587,
      "Ġhis": 588,
      "Ġà¤īà¤ª": 589,
      "Ġtheir": 590,
      "à¤ĩà¤¸": 591,
      "ard": 592,
      "red": 593,
      "Ġal": 594,
      "ight": 595,
      "ĠN": 596,
      "Ġà¤¤à¤¥": 597,
      "à¥Īà¤Ĥà¥¤": 598,
      "ord": 599,
      "Ġà¤ªà¤¹": 600,
      "Ġà¤§": 601,
      "Ġ\"": 602,
      "à¥ī": 603,
      "à¤¾à¤ģ": 604,
      "à¤Ŀ": 605,
      "à¤ĥ": 606,
      "pt": 607,
      "à¤°à¤®": 608,
      "ous": 609,
      "Ġdo": 610,
      "ust": 611,
      "te": 612,
      "Ġall": 613,
      "Ġle": 614,
      "ther": 615,
      "Ġch": 616,
      "Ĳà¤¸": 617,
      "ose": 618,
      "à¤¢": 619,
      "ag": 620,
      "Â¤": 621,
      "ong": 622,
      "ud": 623,
      "ĠAll": 624,
      "ial": 625,
      "Ġwhe": 626,
      "ome": 627,
      "age": 628,
      "Ġtr": 629,
      "à¤¸à¤°": 630,
      "Ġà¤Ĩà¤ª": 631,
      "Ġà¤ħà¤²": 632,
      "Ġ19": 633,
      "Ġà¤Ľ": 634,
      "ame": 635,
      "à¤¹à¤°": 636,
      "à¤¨à¤ķ": 637,
      "Ġwor": 638,
      "à¤Ĺà¤°": 639,
      "à¥ĩà¥¤": 640,
      "à¤¯à¤¤": 641,
      "à¤°à¤¹": 642,
      "à¤¼à¥Ģ": 643,
      "ans": 644,
      "ĠE": 645,
      "ated": 646,
      "ĠF": 647,
      "à¤¼à¥ģ": 648,
      "Ġà¤¤à¤ķ": 649,
      "cc": 650,
      "ount": 651,
      "Ġà¤ĺ": 652,
      "ance": 653,
      "Ġà¤Ĳà¤¸": 654,
      "ĠO": 655,
      "à¤¤à¤¨": 656,
      "av": 657,
      "Ġpl": 658,
      "Ġme": 659,
      "Ġgo": 660,
      "à¥Ī.": 661,
      "Ġà¤²à¤Ĺ": 662,
      "à¤²à¤¨": 663,
      "ĠAllah": 664,
      "Ġyour": 665,
      "ip": 666,
      "ect": 667,
      "à¤¯à¤®": 668,
      "ear": 669,
      "rou": 670,
      "à¤°à¤¦": 671,
      "Ġà¤®à¤¹": 672,
      "Ġab": 673,
      "ast": 674,
      "à¤°à¤¸": 675,
      "ĠK": 676,
      "à¤ªà¤¤": 677,
      "ide": 678,
      "Ġcan": 679,
      "ost": 680,
      "à¤²à¤¤": 681,
      "ry": 682,
      "Ġdis": 683,
      "Ġà¤°à¤ĸ": 684,
      "à¤¸à¤®": 685,
      "ok": 686,
      "Ġus": 687,
      "Ġsa": 688,
      "ff": 689,
      "Ġà¤ľà¤¬": 690,
      "Ġthere": 691,
      "able": 692,
      "Ġà¤µà¤°": 693,
      "Ġà¤¬à¤¹": 694,
      "à¤¨à¤¤": 695,
      "Ġà¤¸à¤¹": 696,
      "Ġim": 697,
      "Ġpe": 698,
      "à¤µà¤¨": 699,
      "Ġany": 700,
      "nder": 701,
      "ish": 702,
      "ap": 703,
      "Ġà¤Ł": 704,
      "Ġbut": 705,
      "now": 706,
      "Ġman": 707,
      "Ġcomp": 708,
      "ĠIndia": 709,
      "à¤¼à¤¿": 710,
      "Ġad": 711,
      "à¤¼à¥ĩ": 712,
      "ary": 713,
      "Ġà¤īà¤¤": 714,
      "Ġone": 715,
      "And": 716,
      "Ġup": 717,
      "Ġen": 718,
      "og": 719,
      "à¤¶à¤¨": 720,
      "Th": 721,
      "so": 722,
      "à¤ŀ": 723,
      "à¤¯à¤¹": 724,
      "à¤®à¤¨": 725,
      "à¥Ģà¥¤": 726,
      "out": 727,
      "ult": 728,
      "Ġhim": 729,
      "ice": 730,
      "Ġun": 731,
      "Ġother": 732,
      "Ġj": 733,
      "ik": 734,
      "à¥ĩ,": 735,
      "Ġwere": 736,
      "one": 737,
      "Ġper": 738,
      "Ġbeen": 739,
      "à¤ļà¤¨": 740,
      "Â¤Â": 741,
      "à¤¸à¤ķ": 742,
      "à¤ĺ": 743,
      "ical": 744,
      "Ġso": 745,
      "au": 746,
      "gh": 747,
      "ru": 748,
      "ople": 749,
      "per": 750,
      "à¤®à¤¤": 751,
      "In": 752,
      "ence": 753,
      "ions": 754,
      "Ġhad": 755,
      "pl": 756,
      "à¥Ģ,": 757,
      "ĠHe": 758,
      "Ġres": 759,
      "ib": 760,
      "ĠU": 761,
      "ress": 762,
      "..": 763,
      "à¤Ĺà¤¤": 764,
      "Ġà¤¸à¤¬": 765,
      "à¤¬à¤°": 766,
      "ire": 767,
      "Ġcont": 768,
      "ime": 769,
      "are": 770,
      "à¤·à¤£": 771,
      "Ġà¤ħà¤µ": 772,
      "ake": 773,
      "ine": 774,
      "ail": 775,
      "very": 776,
      "vel": 777,
      "iz": 778,
      "Ġpeople": 779,
      "ang": 780,
      "Ġag": 781,
      "à¤¸à¤¨": 782,
      "ase": 783,
      "à¤°à¤¯": 784,
      "Ġà¤ªà¤¹à¤²": 785,
      "Ġwhen": 786,
      "ations": 787,
      "Ġà¤ķà¤®": 788,
      "Ġknow": 789,
      "Ġà¤Ĩà¤¯": 790,
      "Ġthose": 791,
      "ign": 792,
      "ue": 793,
      "ub": 794,
      "orm": 795,
      "Ġam": 796,
      "Ġpart": 797,
      "Ġsaid": 798,
      "It": 799,
      "ade": 800,
      "Ġout": 801,
      "rit": 802,
      "Ġà¤Ī": 803,
      "ĠWe": 804,
      "ile": 805,
      "ĠJ": 806,
      "à¤Łà¤°": 807,
      "01": 808,
      "He": 809,
      "Ġinc": 810,
      "Ġunder": 811,
      "ings": 812,
      "ath": 813,
      "Ġind": 814,
      "Ġalso": 815,
      "to": 816,
      "Ġits": 817,
      "Ġ3": 818,
      "vers": 819,
      "ace": 820,
      "Ġà¤¬à¤¡": 821,
      "à¤²à¤¯": 822,
      "ian": 823,
      "ach": 824,
      "Ġno": 825,
      "ep": 826,
      "ens": 827,
      "ass": 828,
      "Ġshall": 829,
      "Ġcl": 830,
      "à¤¯à¤¨": 831,
      "Ġwhat": 832,
      "act": 833,
      "Ġar": 834,
      "Ġ/": 835,
      "ber": 836,
      "Ġbel": 837,
      "Ġif": 838,
      "à¤¦à¤°": 839,
      "Ġco": 840,
      "Ġev": 841,
      "Ġà¤ĵ": 842,
      "Ġour": 843,
      "Ġà¤¸à¤ķ": 844,
      "à¤°à¤µ": 845,
      "Ġà¤īà¤¦": 846,
      "ĠV": 847,
      "ious": 848,
      "à¤¹à¤¤": 849,
      "Ġte": 850,
      "Ġcomm": 851,
      "reat": 852,
      "Ġà¤¸à¤®à¤¯": 853,
      "à¤¦à¤¨": 854,
      "ren": 855,
      "Ġmay": 856,
      "lic": 857,
      "ual": 858,
      "vern": 859,
      "du": 860,
      "port": 861,
      "ise": 862,
      "fe": 863,
      "ree": 864,
      "ory": 865,
      "ition": 866,
      "fter": 867,
      "ĠGod": 868,
      "Ġà¤ħà¤Ń": 869,
      "Ġyear": 870,
      "ack": 871,
      "Ġà¤¤à¤°à¤¹": 872,
      "ĠThe": 873,
      "fore": 874,
      "ook": 875,
      "à¤ķà¤²": 876,
      "ident": 877,
      "Ġà¤ĩà¤¸à¤ķ": 878,
      "Ġà¤¸à¤Ń": 879,
      "Ġà¤ĩà¤¨": 880,
      "ĠâĢľ": 881,
      "ike": 882,
      "Ġapp": 883,
      "erv": 884,
      "Ġsc": 885,
      "Ġà¤ªà¤¤": 886,
      "Ġacc": 887,
      "Ġà¤ħà¤¤": 888,
      "ĠLord": 889,
      "à¥ĩ)": 890,
      "Ġspe": 891,
      "Ġonly": 892,
      "à¤¯à¤µ": 893,
      "Ġbec": 894,
      "Ġwould": 895,
      "old": 896,
      "à¤¹à¤®": 897,
      "à¤ķà¤°à¤£": 898,
      "à¤®à¤ķ": 899,
      "we": 900,
      "Ġrel": 901,
      "ause": 902,
      "ove": 903,
      "Ġtime": 904,
      "urn": 905,
      "à¤¾.": 906,
      "hed": 907,
      "ĠâĢĿ": 908,
      "ric": 909,
      "à¤µà¤¤": 910,
      "form": 911,
      "Ġsub": 912,
      "Ġtw": 913,
      "ĠCh": 914,
      "Ġpo": 915,
      "sel": 916,
      "ject": 917,
      "Ġsuch": 918,
      "à¥ĭ,": 919,
      "ater": 920,
      "Ġà¤¸à¤°": 921,
      "Ġsp": 922,
      "Ġwork": 923,
      "This": 924,
      "Ġà¤¸à¤°à¤ķ": 925,
      "à¤ıà¤Ĺ": 926,
      "ational": 927,
      "Ġà¤Ĩà¤µ": 928,
      "Ġpre": 929,
      "ted": 930,
      "à¤§à¤¨": 931,
      "Ġprov": 932,
      "Ġà¤Ĺà¤Ī": 933,
      "Ġà¤Ĺà¤ı": 934,
      "à¥ģà¤Ĥ": 935,
      "Ġover": 936,
      "rib": 937,
      "à¤Łà¤¨": 938,
      "ild": 939,
      "Ġà¤ħà¤°": 940,
      "Ġmade": 941,
      "ays": 942,
      "Ġmore": 943,
      "à¥Ĥà¤Ĥ": 944,
      "Ġrec": 945,
      "Ġabout": 946,
      "à¤°à¤Ń": 947,
      "Ġqu": 948,
      "à¤°à¤ªà¤¤": 949,
      "Ġthen": 950,
      "Ġà¤¬à¤¢": 951,
      "à¤¼à¥į": 952,
      "ities": 953,
      "ĠSt": 954,
      "Ġà¤ĵà¤°": 955,
      "Ġfo": 956,
      "ound": 957,
      "Ġlike": 958,
      "sh": 959,
      "vernment": 960,
      "âĢĻ": 961,
      "Ġear": 962,
      "ĠIn": 963,
      "Ġsome": 964,
      "Ġshould": 965,
      "ution": 966,
      "à¤ıà¤ķ": 967,
      "à¤ĩà¤¨": 968,
      "aj": 969,
      "tern": 970,
      "lect": 971,
      "ces": 972,
      "à¥Īà¤Ĥ,": 973,
      "ward": 974,
      "Ġà¤Ĩà¤¦": 975,
      "Ġthan": 976,
      "ied": 977,
      "Ġbelie": 978,
      "Ġinto": 979,
      "ife": 980,
      "wn": 981,
      "Ġà¤¤à¤°": 982,
      "à¤µà¤²": 983,
      "à¥Ĥà¤ģ": 984,
      "Ġmy": 985,
      "Ġnew": 986,
      "ite": 987,
      "à¤īà¤¨": 988,
      "Ġcount": 989,
      "Ġà¤¹à¤°": 990,
      "Ġà¤Ĩà¤§": 991,
      "Ġfe": 992,
      "Ġbet": 993,
      "à¤¶à¤ķ": 994,
      "Ġà¤ªà¤¡": 995,
      "ert": 996,
      "Ġoff": 997,
      "Ġcons": 998,
      "ark": 999,
      "Ġem": 1000,
      "à¥Ģ)": 1001,
      "ful": 1002,
      "Ġà¤ħà¤ļ": 1003,
      "ons": 1004,
      "Ġ5": 1005,
      "iss": 1006,
      "à¤¾)": 1007,
      "uth": 1008,
      "Ġà¤ıà¤µ": 1009,
      "Ġà¤¹à¤®à¤¨": 1010,
      "We": 1011,
      "Ġass": 1012,
      "à¤¯à¤¦": 1013,
      "ĠGo": 1014,
      "à¤ĩà¤²": 1015,
      "Ġà¤Ŀ": 1016,
      "Ġpr": 1017,
      "Ġrem": 1018,
      "Ġà¤¬à¤¦": 1019,
      "à¤µà¤¹": 1020,
      "Ġtwo": 1021,
      "âĢį": 1022,
      "Ġà¤¦à¤°": 1023,
      "Ġ200": 1024,
      "velop": 1025,
      "Ġ4": 1026,
      "stit": 1027,
      "hen": 1028,
      "ec": 1029,
      "à¤¯à¤°": 1030,
      "end": 1031,
      "Ġthese": 1032,
      "à¥įâĢį": 1033,
      "Ġà¥": 1034,
      "Ġà¤Ĩà¤°": 1035,
      "à¤°à¤¶": 1036,
      "ness": 1037,
      "Ġà¤°à¤¸": 1038,
      "own": 1039,
      "oy": 1040,
      "Ġà¤¸à¤®à¤Ŀ": 1041,
      "à¤¸à¤²": 1042,
      "Ġà¤Ĭ": 1043,
      "Ġtrans": 1044,
      "gr": 1045,
      "cept": 1046,
      "ific": 1047,
      "Ġreg": 1048,
      "ank": 1049,
      "à¥ĩà¤Ĥ,": 1050,
      "âĢĿ": 1051,
      "ĠY": 1052,
      "Ġà¤Ĩà¤¤": 1053,
      "Ġform": 1054,
      "Ġafter": 1055,
      "Ġà¤ļà¤²": 1056,
      "ments": 1057,
      "Ġà¤¬à¤ļ": 1058,
      "Ġà¤ħà¤ª": 1059,
      "ates": 1060,
      "Ġact": 1061,
      "ph": 1062,
      "ond": 1063,
      "ne": 1064,
      "Ġà¤Īà¤®": 1065,
      "ple": 1066,
      "Ġgood": 1067,
      "Ġà¤Ĩà¤ªà¤ķ": 1068,
      "Ġro": 1069,
      "Ġà¤¯à¤¦": 1070,
      "ient": 1071,
      "ily": 1072,
      "Ġ[": 1073,
      "ts": 1074,
      "Ġà¤īà¤ªà¤¯": 1075,
      "Ġsay": 1076,
      "à¤¤à¤ķ": 1077,
      "led": 1078,
      "Ġdes": 1079,
      "llow": 1080,
      "à¤Ĳ": 1081,
      "Ġpers": 1082,
      "ave": 1083,
      "),": 1084,
      "Ġà¤ħà¤¸": 1085,
      "Ġbefore": 1086,
      "à¥ĭà¥¤": 1087,
      "Ġagain": 1088,
      "ink": 1089,
      "Ġent": 1090,
      "ob": 1091,
      "ĠSh": 1092,
      "Ġdec": 1093,
      "Ġfir": 1094,
      "à¤ªà¤ķ": 1095,
      "ved": 1096,
      "à¤®à¤²": 1097,
      "ower": 1098,
      "ors": 1099,
      "aw": 1100,
      "Ġob": 1101,
      "ght": 1102,
      "Ġher": 1103,
      "à¤¨à¤¨": 1104,
      "Ġsee": 1105,
      "row": 1106,
      "cy": 1107,
      "cess": 1108,
      "resident": 1109,
      "Ġà¤ł": 1110,
      "Ġright": 1111,
      "eng": 1112,
      "Ġà¤ľà¤¹": 1113,
      "à¥Ģ.": 1114,
      "ism": 1115,
      "à¤²à¤¬": 1116,
      "Ġà¤®à¤¨": 1117,
      "Ġworld": 1118,
      "Ġlife": 1119,
      "Ġcall": 1120,
      "rough": 1121,
      "ced": 1122,
      "cial": 1123,
      "Ġ(_": 1124,
      "Ġà¤¸à¤¦": 1125,
      "omm": 1126,
      "ener": 1127,
      "Ġsy": 1128,
      "Ġ201": 1129,
      "Ġà¤Ĩà¤Ĺ": 1130,
      "à¥¦": 1131,
      "Ġbl": 1132,
      "Ġ_": 1133,
      "erm": 1134,
      "eth": 1135,
      "But": 1136,
      "arm": 1137,
      "à¤®à¤°": 1138,
      "Ġgu": 1139,
      "Ġday": 1140,
      "Ġgiv": 1141,
      "Ġac": 1142,
      "ally": 1143,
      "Ġra": 1144,
      "Ġà¤¬à¤²": 1145,
      "à¤Ĺà¤²": 1146,
      "rent": 1147,
      "li": 1148,
      "Wh": 1149,
      "ran": 1150,
      "Ġdif": 1151,
      "pect": 1152,
      "ĠTh": 1153,
      "other": 1154,
      "ever": 1155,
      "me": 1156,
      "à¤¾-": 1157,
      "Ġà¤¸à¤¤": 1158,
      "ĠIndian": 1159,
      "Ġbeing": 1160,
      "Ġwhere": 1161,
      "Ġthrough": 1162,
      "les": 1163,
      "uring": 1164,
      "Ġpres": 1165,
      "They": 1166,
      "Ġdevelop": 1167,
      "Ġ&": 1168,
      "xt": 1169,
      "Ġgreat": 1170,
      "Ġevery": 1171,
      "ning": 1172,
      "igh": 1173,
      "Ġà¤Ĩà¤ķ": 1174,
      "à¤ľà¤¬": 1175,
      "à¤°à¤¨": 1176,
      "int": 1177,
      "Ġneed": 1178,
      "ft": 1179,
      "Ġà¤ľà¤¨": 1180,
      "Ġpol": 1181,
      "Ġset": 1182,
      "Ġà¤ħà¤¬": 1183,
      "à¤¤à¤µ": 1184,
      "Ġcent": 1185,
      "oth": 1186,
      "uc": 1187,
      "à¥Īà¤Ĥ.": 1188,
      "ating": 1189,
      "ative": 1190,
      "Ġcre": 1191,
      "ood": 1192,
      "ull": 1193,
      "à¤ħà¤¨": 1194,
      "à¤¤à¤®": 1195,
      "Ġà¤ķà¤²": 1196,
      ").": 1197,
      "ween": 1198,
      "Ġinv": 1199,
      "à¤°à¤¬": 1200,
      "ves": 1201,
      "Ġà¤Ĩà¤ľ": 1202,
      "Ġcountry": 1203,
      "Ġà¤¶à¤ķ": 1204,
      "ular": 1205,
      "Ġà¤ħà¤ķ": 1206,
      "hi": 1207,
      "Ġfl": 1208,
      "Â¥": 1209,
      "Â¥Â": 1210,
      "olog": 1211,
      "its": 1212,
      "eed": 1213,
      "Ġmake": 1214,
      "Ġserv": 1215,
      "à¤ķà¤¨": 1216,
      "Ġà¤¬à¤¦à¤²": 1217,
      "Ġpos": 1218,
      "Ġyears": 1219,
      "Ġatt": 1220,
      "Ġthou": 1221,
      "the": 1222,
      "Ġfirst": 1223,
      "Ġbetween": 1224,
      "ided": 1225,
      "Ġdown": 1226,
      "ha": 1227,
      "Ġsec": 1228,
      "ages": 1229,
      "Ġprodu": 1230,
      "à¤ĸà¤¨": 1231,
      "à¤¥à¤µ": 1232,
      "ax": 1233,
      "Ġused": 1234,
      "à¤Ĭ": 1235,
      "Ġà¤¢": 1236,
      "ible": 1237,
      "ĠâĢĺ": 1238,
      "So": 1239,
      "à¥ģà¤ģ": 1240,
      "Ġà¤ħà¤Ĺà¤°": 1241,
      "Ġ6": 1242,
      "Ġcould": 1243,
      "con": 1244,
      "Ġfollow": 1245,
      "ublic": 1246,
      "Ġdoes": 1247,
      "Ġadd": 1248,
      "Ġname": 1249,
      "ble": 1250,
      "ĠPro": 1251,
      "Ġaw": 1252,
      "gan": 1253,
      "Ġmany": 1254,
      "Ġmost": 1255,
      "Ġà¤®à¤¹à¤¤": 1256,
      "There": 1257,
      "Ġdid": 1258,
      "à¥Ģ-": 1259,
      "ised": 1260,
      "Ġvery": 1261,
      "Ġway": 1262,
      "à¤ĭ": 1263,
      "Ġke": 1264,
      "pos": 1265,
      "ural": 1266,
      "als": 1267,
      "à¤¼à¥ĭ": 1268,
      "Ġ:": 1269,
      "stem": 1270,
      "pen": 1271,
      "ĠGovernment": 1272,
      "har": 1273,
      "und": 1274,
      "ty": 1275,
      "Ġà¤īà¤ł": 1276,
      "ature": 1277,
      "...": 1278,
      "any": 1279,
      "Ġwell": 1280,
      "à¤Łà¤ķ": 1281,
      "ĠPresident": 1282,
      "Ġperson": 1283,
      "à¤¨à¤µ": 1284,
      "à¤¨à¤®": 1285,
      "Ġinte": 1286,
      "Ġhel": 1287,
      "Ġeff": 1288,
      "oci": 1289,
      "ng": 1290,
      "Ġeven": 1291,
      "à¤µà¤¸": 1292,
      "Ġà¤¬à¤¸": 1293,
      "Ġget": 1294,
      "ange": 1295,
      "Ġcome": 1296,
      "ĠUn": 1297,
      "Ġhow": 1298,
      "ited": 1299,
      "à¤ĩà¤¸à¤ķ": 1300,
      "Ġà¤Ĩà¤µà¤¶": 1301,
      "ents": 1302,
      "ven": 1303,
      "self": 1304,
      "pport": 1305,
      "ister": 1306,
      "à¤²à¤ķ": 1307,
      "Ġcol": 1308,
      "ting": 1309,
      "ef": 1310,
      "lud": 1311,
      "ility": 1312,
      "Ġà¤īà¤ļ": 1313,
      "à¤¿,": 1314,
      "ss": 1315,
      "Ġback": 1316,
      "à¥ĭà¤Ĥ,": 1317,
      "uch": 1318,
      "Ġ<": 1319,
      "ather": 1320,
      "Ġdist": 1321,
      "Ġnum": 1322,
      "ĠHis": 1323,
      "à¤ķà¤¡": 1324,
      "Ġret": 1325,
      "Ġord": 1326,
      "Ġsign": 1327,
      "Ġown": 1328,
      "of": 1329,
      "ĠHim": 1330,
      "Ġupon": 1331,
      "Ġà¤°à¤¹à¤¤": 1332,
      "à¤ľà¤°": 1333,
      "iew": 1334,
      "ring": 1335,
      "air": 1336,
      "Ġ7": 1337,
      "Ġagainst": 1338,
      "ĠAnd": 1339,
      "aking": 1340,
      "Ġà¤¸à¤¬à¤¸": 1341,
      "Ġed": 1342,
      "ving": 1343,
      "ee": 1344,
      "à¤¯à¤µà¤¸": 1345,
      "get": 1346,
      "Ġ18": 1347,
      "Ġhelp": 1348,
      "Ġtra": 1349,
      "âĢľ": 1350,
      "Ġ8": 1351,
      "Ġà¤°à¤¬": 1352,
      "Ġamong": 1353,
      "Ġref": 1354,
      "à¥ĩ-": 1355,
      "Ġrep": 1356,
      "à¤¡à¤°": 1357,
      "Ġearth": 1358,
      "Ġà¤ªà¤¶": 1359,
      "Ġà¤ľà¤²": 1360,
      "Ġà¤ľà¤°": 1361,
      "RB": 1362,
      "Ġà¤ªà¤¦": 1363,
      "hes": 1364,
      "à¤µà¤ª": 1365,
      "If": 1366,
      "à¥ĩ.": 1367,
      "ont": 1368,
      "Ġpur": 1369,
      "Ġà¤Ńà¤°": 1370,
      "amm": 1371,
      "Ġà¤Ĩà¤¨": 1372,
      "ures": 1373,
      "Ġmess": 1374,
      "Ġunt": 1375,
      "Ġwrit": 1376,
      "ck": 1377,
      "ĠAct": 1378,
      "ased": 1379,
      "ission": 1380,
      "à¥ĩà¤Ĥà¥¤": 1381,
      "irect": 1382,
      "round": 1383,
      "Ġmem": 1384,
      "ute": 1385,
      "Ġà¤īà¤¸à¤¨": 1386,
      "Ġ0": 1387,
      "Ġend": 1388,
      "Ġà¤ķà¤¹à¤¤": 1389,
      "ĠMin": 1390,
      "Ġtake": 1391,
      "Ġinst": 1392,
      "ision": 1393,
      "Ġhand": 1394,
      "Ġshe": 1395,
      "à¤¬à¤¨": 1396,
      "Ġuse": 1397,
      "not": 1398,
      "up": 1399,
      "ick": 1400,
      "ati": 1401,
      "Ġimport": 1402,
      "Ġmod": 1403,
      "à¤®à¤¸": 1404,
      "ract": 1405,
      "Ġbu": 1406,
      "elie": 1407,
      "chn": 1408,
      "Ġchild": 1409,
      "Ġchar": 1410,
      "ĠIs": 1411,
      "ants": 1412,
      "Ġmat": 1413,
      "Ġjust": 1414,
      "à¤¨à¤°": 1415,
      "Ġsent": 1416,
      "à¤·à¤ķ": 1417,
      "read": 1418,
      "ash": 1419,
      "Ġgiven": 1420,
      "Ġdiffe": 1421,
      "19": 1422,
      "Ġà¤ĳ": 1423,
      "ten": 1424,
      "formation": 1425,
      "ished": 1426,
      "Ġdisc": 1427,
      "Ġmon": 1428,
      "Ġà¤Ĺà¤°": 1429,
      "Ġval": 1430,
      "Ġà¤¶à¤°": 1431,
      "ĠComm": 1432,
      "à¤¬à¤²": 1433,
      "Ġà¤ĺà¤°": 1434,
      "Ġph": 1435,
      "à¤·à¤¯": 1436,
      "pend": 1437,
      "Ġà¤ħà¤¥à¤µ": 1438,
      "§à¥": 1439,
      "Ġsystem": 1440,
      "Ġà¤µà¤¸": 1441,
      "à¤Ńà¤µ": 1442,
      "ock": 1443,
      "Ġmust": 1444,
      "201": 1445,
      "ĠPr": 1446,
      "Ġbecause": 1447,
      "Ġà¤īà¤ªà¤²à¤¬": 1448,
      "à¤µà¤°à¤£": 1449,
      "ital": 1450,
      "Ġap": 1451,
      "rong": 1452,
      "ouse": 1453,
      "rest": 1454,
      "ices": 1455,
      "à¤ıà¤¸": 1456,
      "Ġlit": 1457,
      "Ġplace": 1458,
      "Ġbelieve": 1459,
      "Ġà¤ľà¤®": 1460,
      "ror": 1461,
      "Ġà¤¬à¤¤": 1462,
      "Ġà¤¤à¤°à¤«": 1463,
      "Ġins": 1464,
      "Ġà¤¬à¤°": 1465,
      "pr": 1466,
      "ctions": 1467,
      "à¤ķà¤Ł": 1468,
      "Ġpower": 1469,
      "ives": 1470,
      "à¤īà¤¸": 1471,
      "Ġlong": 1472,
      "Ġà¤¸à¤ļ": 1473,
      "ĠBh": 1474,
      "Ġpass": 1475,
      "Ġrequ": 1476,
      "tle": 1477,
      ".\"": 1478,
      "Ġturn": 1479,
      "arch": 1480,
      "à¤ħà¤²": 1481,
      "à¤¹à¤¨": 1482,
      "Ġwom": 1483,
      "Ġà¤¤à¤¬": 1484,
      "Ġgr": 1485,
      "ides": 1486,
      "000": 1487,
      "Ġhum": 1488,
      "à¤µà¤¯": 1489,
      "Ġcert": 1490,
      "Ġmin": 1491,
      "Ġà¤°à¤ĸà¤¤": 1492,
      "alth": 1493,
      "Ġcar": 1494,
      "Ġvar": 1495,
      "Ġà¤®à¤¦": 1496,
      "ĠHind": 1497,
      "iness": 1498,
      "ix": 1499,
      "ew": 1500,
      "Ind": 1501,
      "Ġgener": 1502,
      "Ġà¤Ķ": 1503,
      ".(": 1504,
      "Ġà¤ªà¤°à¤µà¤°": 1505,
      "ivers": 1506,
      "à¤ħà¤ªà¤¨": 1507,
      "à¤ķà¤¸": 1508,
      "à¤«à¤²": 1509,
      "Ġà¤ĩà¤¨à¤ķ": 1510,
      "Ġà¤īà¤¸à¤¸": 1511,
      "Ġnow": 1512,
      "Ġexp": 1513,
      "Ġsm": 1514,
      "ries": 1515,
      "à¤¯à¤ª": 1516,
      "ĠState": 1517,
      "Ġgive": 1518,
      "ral": 1519,
      "à¤īà¤¨à¤ķ": 1520,
      "You": 1521,
      "ana": 1522,
      "Ġav": 1523,
      "ork": 1524,
      "An": 1525,
      "Ġstate": 1526,
      "ii": 1527,
      "à¤ļà¤¯": 1528,
      "Ġinclud": 1529,
      "ata": 1530,
      "Ġà¤Ĩà¤¸": 1531,
      "ars": 1532,
      "Ġcond": 1533,
      "Ġà¤°à¤ĸà¤¨": 1534,
      "belie": 1535,
      "Ġconf": 1536,
      "lim": 1537,
      "Ġcap": 1538,
      "Ġà¤īà¤¨à¤¸": 1539,
      "arn": 1540,
      "à¤ªà¤¯": 1541,
      "Ġye": 1542,
      "ĠÃł": 1543,
      "Ġequ": 1544,
      "Ġfound": 1545,
      "As": 1546,
      "Ġà¤ªà¤°à¤µà¤°à¤¦": 1547,
      "Ġimp": 1548,
      "Ġ10": 1549,
      "Ġaccount": 1550,
      "ug": 1551,
      "ĠDe": 1552,
      "roup": 1553,
      "Ġlar": 1554,
      "à¤ĩà¤Ł": 1555,
      "ict": 1556,
      "angu": 1557,
      "Ġwant": 1558,
      "Ġcle": 1559,
      "oun": 1560,
      "ined": 1561,
      "ified": 1562,
      "Ġlead": 1563,
      "à¤ĸà¤¤": 1564,
      "Ġà¤ħà¤ľ": 1565,
      "ale": 1566,
      "Ġwater": 1567,
      "Ġduring": 1568,
      "uthor": 1569,
      "ared": 1570,
      "Ġmain": 1571,
      "Ġinter": 1572,
      "ists": 1573,
      "ody": 1574,
      "ES": 1575,
      "à¥Ī?": 1576,
      "à¤¨à¤²": 1577,
      "ety": 1578,
      "Ġfam": 1579,
      "Ġsame": 1580,
      "Ġprom": 1581,
      "Ġnumber": 1582,
      "Ġaway": 1583,
      "ern": 1584,
      "selves": 1585,
      "Ġ9": 1586,
      "uk": 1587,
      "Ġcour": 1588,
      "Ġà¤ķà¤Ī": 1589,
      "ya": 1590,
      "à¤Ĺà¤®": 1591,
      "à¤¦à¤®": 1592,
      "à¤ªà¤·": 1593,
      "ters": 1594,
      "Ġà¤ķà¤Ń": 1595,
      "man": 1596,
      "Ġcalled": 1597,
      "ional": 1598,
      "Ġ>": 1599,
      "Ġnor": 1600,
      "Ġà¤¸à¤¦à¤¸": 1601,
      "Ġfore": 1602,
      "Ġà¤ķà¤°à¤ķ": 1603,
      "imes": 1604,
      "Ġmen": 1605,
      "Ġà¤ħà¤®": 1606,
      "day": 1607,
      "less": 1608,
      "à¤Ĳà¤¸": 1609,
      "Ġsure": 1610,
      "Ġlet": 1611,
      "iod": 1612,
      "tc": 1613,
      "Ġhere": 1614,
      "Ġinf": 1615,
      "Ġfin": 1616,
      "On": 1617,
      "à¤Ĩà¤°": 1618,
      "ruct": 1619,
      "eg": 1620,
      "à¤ªà¤¸": 1621,
      "ys": 1622,
      "à¤µà¤ķ": 1623,
      "ship": 1624,
      "Ġà¤°à¤ķ": 1625,
      "Ġgl": 1626,
      "Ġconc": 1627,
      "Ġà¤ĩà¤¸à¤®": 1628,
      "When": 1629,
      "Ġà¤°à¤¹à¤¨": 1630,
      "Ġeach": 1631,
      "ov": 1632,
      "Ġcase": 1633,
      "Ġwhile": 1634,
      "Ġstart": 1635,
      "ins": 1636,
      "Ġspec": 1637,
      "ĠDay": 1638,
      "Ġpresent": 1639,
      "lease": 1640,
      "conom": 1641,
      "à¤·à¤®": 1642,
      "Ġtak": 1643,
      "ered": 1644,
      "ired": 1645,
      "ology": 1646,
      "Ġint": 1647,
      "Ġart": 1648,
      "Ġà¤§à¤°": 1649,
      "ledge": 1650,
      "Ġask": 1651,
      "à¤°à¤§": 1652,
      "Ġland": 1653,
      "Ġ15": 1654,
      "Ġheav": 1655,
      "à¤¸à¤¦": 1656,
      "Ġest": 1657,
      "ality": 1658,
      "à¤¶à¤¤": 1659,
      "à¤ļà¤°": 1660,
      "Ġorgan": 1661,
      "Ġocc": 1662,
      "Ġdevelopment": 1663,
      "Ġà¤ħà¤²à¤Ĺ": 1664,
      "Ġboth": 1665,
      "Ġbook": 1666,
      "Ġlaw": 1667,
      "Ġword": 1668,
      "Ġstud": 1669,
      "à¤Ĩà¤Ī": 1670,
      "Ġ199": 1671,
      "Ġà¤²à¤¡": 1672,
      "Ġlo": 1673,
      "Ġdet": 1674,
      "lish": 1675,
      "Ġdifferent": 1676,
      "ience": 1677,
      "à¤£à¤¨": 1678,
      "Ġà¤īà¤²": 1679,
      "ics": 1680,
      "Ġà¤īà¤¨à¤®": 1681,
      "Ġrece": 1682,
      "ains": 1683,
      "Ġà¤ħà¤µà¤¸à¤°": 1684,
      "Ġcur": 1685,
      "Ġloc": 1686,
      "Ġheart": 1687,
      "Ġanother": 1688,
      ":%": 1689,
      "ner": 1690,
      "Ġadv": 1691,
      "à¤łà¤¨": 1692,
      "Ġdef": 1693,
      "bers": 1694,
      "Ġindust": 1695,
      "Ġcomple": 1696,
      "Ġthings": 1697,
      "Ġprocess": 1698,
      "Ġdem": 1699,
      "Ġsection": 1700,
      "à¤¨à¤¸": 1701,
      "ament": 1702,
      "à¥ĭ)": 1703,
      "Ġthree": 1704,
      "All": 1705,
      "Ġresp": 1706,
      "Ġorder": 1707,
      "Ġà¤ªà¤¢": 1708,
      "su": 1709,
      "Ġà¤¶à¤¬": 1710,
      "ption": 1711,
      "à¤¥à¤®": 1712,
      "Ġetc": 1713,
      "Ġrelig": 1714,
      "à¥ĩà¤Ĥ)": 1715,
      "Ġwhom": 1716,
      "mb": 1717,
      "Ġser": 1718,
      "Ġce": 1719,
      "à¤¬à¤¦": 1720,
      "Ġperiod": 1721,
      "Ġcor": 1722,
      "amp": 1723,
      "wards": 1724,
      "Ġsur": 1725,
      "For": 1726,
      "Ġpublic": 1727,
      "ained": 1728,
      "ool": 1729,
      "à¤®à¤¹": 1730,
      "Ġà¤¸à¤®à¤°": 1731,
      "Ġ20": 1732,
      "Ġfact": 1733,
      "Ġà¤Ĩà¤¶": 1734,
      "Sh": 1735,
      "à¤¼à¥ĭà¤Ĥ": 1736,
      "stitution": 1737,
      "à¤°à¤¦à¤°": 1738,
      "ize": 1739,
      "Ġeduc": 1740,
      "Ġopen": 1741,
      "Ġcame": 1742,
      "omp": 1743,
      "Ġfind": 1744,
      "Ġfac": 1745,
      "à¤¸à¤¤": 1746,
      "Ġpartic": 1747,
      "Ġcommun": 1748,
      "rop": 1749,
      "à¤¡à¤²": 1750,
      "Ġà¤Ĳ": 1751,
      "ĠSc": 1752,
      "Ġprev": 1753,
      "EN": 1754,
      "ai": 1755,
      "Ġpay": 1756,
      "à¤Ľà¤²": 1757,
      "Ġà¤¸à¤®à¤¸": 1758,
      "Ġ12": 1759,
      "Ġreturn": 1760,
      "Ġtem": 1761,
      "Ġmark": 1762,
      "Ġbus": 1763,
      "Ġmuch": 1764,
      "Ġgovernment": 1765,
      "Ġsou": 1766,
      "à¤¼à¥Į": 1767,
      "ĠMus": 1768,
      "Ġlist": 1769,
      "Ġwithout": 1770,
      "Ġbeh": 1771,
      "Ġlangu": 1772,
      "Ġterm": 1773,
      "Ġdev": 1774,
      "Ġà¤ĭ": 1775,
      "Ġshow": 1776,
      "Ġà¤²à¤ķ": 1777,
      "'s": 1778,
      "Ġà¤ĸà¤°": 1779,
      "Ġtruth": 1780,
      "ĠCent": 1781,
      "Ġfil": 1782,
      "Ġbest": 1783,
      "ines": 1784,
      "Ġaff": 1785,
      "Ġà¤Ĭà¤ªà¤°": 1786,
      "ually": 1787,
      "Ġà¤ªà¤ķ": 1788,
      "ough": 1789,
      "ince": 1790,
      "Ġlook": 1791,
      "Ġà¤īà¤¸à¤®": 1792,
      "cl": 1793,
      "Ġposs": 1794,
      "mit": 1795,
      "Ġà¤®à¤¤": 1796,
      "Ġà¤µà¤ķ": 1797,
      "ĠCon": 1798,
      "Ġcertain": 1799,
      "Ġread": 1800,
      "à¤¥à¤¨": 1801,
      "à¤°à¤ľ": 1802,
      "ĠâĢĵ": 1803,
      "Ġbro": 1804,
      "Ġà¤ķà¤¹à¤¨": 1805,
      "Ġeconom": 1806,
      "here": 1807,
      "Ġty": 1808,
      "à¤¯à¤²": 1809,
      "à¤µà¤µ": 1810,
      "ived": 1811,
      "Ġtechn": 1812,
      "Ġà¤®à¤§": 1813,
      "Ġinterest": 1814,
      "ention": 1815,
      "Ġplay": 1816,
      "ocial": 1817,
      "Ġhigh": 1818,
      "Ġfile": 1819,
      "Ġext": 1820,
      "Ġsupport": 1821,
      "To": 1822,
      "Ġgrow": 1823,
      "Ġmeans": 1824,
      "Ġknowledge": 1825,
      "à¤Ńà¤Ĺ": 1826,
      "Ġavail": 1827,
      "mer": 1828,
      "stand": 1829,
      "aid": 1830,
      "Ġà¤ĩà¤¤": 1831,
      "ield": 1832,
      "Ġindeed": 1833,
      "Ġà¤¸à¤¨": 1834,
      "Ġthink": 1835,
      "ither": 1836,
      "Ġà¤¡à¤°": 1837,
      "à¤Łà¤²": 1838,
      "ms": 1839,
      "Ġsl": 1840,
      "Ġincre": 1841,
      "min": 1842,
      "ret": 1843,
      "Ġwind": 1844,
      "Ġinformation": 1845,
      "Ġstand": 1846,
      "à¤·à¤¤": 1847,
      "ploy": 1848,
      "Ex": 1849,
      "esh": 1850,
      "Ġà¤¤à¤¤": 1851,
      "rence": 1852,
      "ĠMah": 1853,
      "Ġauthor": 1854,
      "Ġprogr": 1855,
      "Ġà¤Ĺà¤¤": 1856,
      "ged": 1857,
      "Ġcontin": 1858,
      "Ġfa": 1859,
      "Ġà¤ħà¤µà¤§": 1860,
      "Ġfear": 1861,
      "à¤¨à¤¦": 1862,
      "ĠWh": 1863,
      "ev": 1864,
      "iving": 1865,
      "riend": 1866,
      "Ġvis": 1867,
      "crib": 1868,
      "Ġhuman": 1869,
      "Ġdirect": 1870,
      "oh": 1871,
      "error": 1872,
      "ĠEx": 1873,
      "Ġimportant": 1874,
      "Ġgroup": 1875,
      "ccess": 1876,
      "Ġà¤ľà¤Ĺ": 1877,
      "à¥Ģà¤Ĥà¥¤": 1878,
      "ĠPar": 1879,
      "olution": 1880,
      "Ġrespect": 1881,
      "dd": 1882,
      "Ġmed": 1883,
      "Ġà¤Ĩà¤Ī": 1884,
      "ized": 1885,
      "Ġwomen": 1886,
      "Ġ11": 1887,
      "ĠOF": 1888,
      "Ġfull": 1889,
      "Ġcult": 1890,
      "à¤¬à¤¸": 1891,
      "à¤§à¤¤": 1892,
      "à¥į-": 1893,
      "à¤ĸà¤°": 1894,
      "Ġsim": 1895,
      "Ġsmall": 1896,
      "ffic": 1897,
      "à¤¦à¤ķ": 1898,
      "Ġhapp": 1899,
      "Pro": 1900,
      "à¥ĩà¤Ĥ.": 1901,
      "Ġexam": 1902,
      "Ġgra": 1903,
      "St": 1904,
      "ari": 1905,
      "Ġlast": 1906,
      "ĠAs": 1907,
      "ried": 1908,
      "Ġà¤¨à¤µ": 1909,
      "âĢĶ": 1910,
      "Ġà¤ĩà¤¸à¤²": 1911,
      "ination": 1912,
      "à¤¯à¤ķà¤¤": 1913,
      "Ġpun": 1914,
      "à¤ļà¤²": 1915,
      "Ġexcept": 1916,
      "Ġmeet": 1917,
      "Ġeffect": 1918,
      "à¤²à¤Ĺ": 1919,
      "Ġà¤®à¤¦à¤¦": 1920,
      "Ġà¤®à¤°": 1921,
      "Ġbecome": 1922,
      "à¤ħà¤¤": 1923,
      "Ġ{": 1924,
      "AR": 1925,
      "Ġsom": 1926,
      "à¤ľà¤²": 1927,
      "thing": 1928,
      "ways": 1929,
      "ify": 1930,
      "Ġcannot": 1931,
      "reed": 1932,
      "ĠMinister": 1933,
      "ency": 1934,
      "Ġknown": 1935,
      "ĠQ": 1936,
      "Ġappe": 1937,
      "gg": 1938,
      "Ġben": 1939,
      "Ġclear": 1940,
      "Ġà¤®à¤ľ": 1941,
      "Ġproject": 1942,
      "ER": 1943,
      "ĠMess": 1944,
      "ases": 1945,
      "Ġoper": 1946,
      "ks": 1947,
      "ĠYou": 1948,
      "Ġà¤²à¤Ĺà¤¤": 1949,
      "ider": 1950,
      "Ġdisbelie": 1951,
      "Ġà¤ĩà¤¸à¤¸": 1952,
      "Ġcreated": 1953,
      "Ġà¤¨à¤Ī": 1954,
      "Ġà¤¨à¤¯": 1955,
      "inal": 1956,
      "hip": 1957,
      "Ġrest": 1958,
      "Ġsk": 1959,
      "à¤¹à¤ķ": 1960,
      "lected": 1961,
      "à¤īà¤¸à¤ķ": 1962,
      "az": 1963,
      "lam": 1964,
      "Ġtaken": 1965,
      "Ġprof": 1966,
      "Ġproper": 1967,
      "Ġà¤ĩà¤¤à¤¨": 1968,
      "ND": 1969,
      "ctor": 1970,
      "AT": 1971,
      "Ġà¤Ĩà¤®": 1972,
      "à¤¸à¤¸": 1973,
      "Ġà¤Ńà¤µà¤¨": 1974,
      "Ġca": 1975,
      "por": 1976,
      "à¤Ĭà¤£": 1977,
      "Ġ#": 1978,
      "What": 1979,
      "Ġà¥¤": 1980,
      "work": 1981,
      "à¤ľà¤¹": 1982,
      "à¤¤à¤¤": 1983,
      "Ġnever": 1984,
      "tend": 1985,
      "Ġche": 1986,
      "ĠNational": 1987,
      "Ġdiv": 1988,
      "Ġproble": 1989,
      "Ġmonth": 1990,
      "Ġele": 1991,
      "Ġestab": 1992,
      "Ġbring": 1993,
      "stitut": 1994,
      "Ġà¤ħà¤¦": 1995,
      "rap": 1996,
      "asht": 1997,
      "Ġunto": 1998,
      "Ġdays": 1999,
      "Ġtoday": 2000,
      "à¤ħà¤¬": 2001,
      "Ġà¤ħà¤Ĺ": 2002,
      "Ġchildren": 2003,
      "Ġfour": 2004,
      "gress": 2005,
      "ember": 2006,
      "Ġà¤ķà¤µ": 2007,
      "Ġpat": 2008,
      "Ġbusiness": 2009,
      "Ġsch": 2010,
      "ĠMuslim": 2011,
      "44": 2012,
      "idd": 2013,
      "Ġold": 2014,
      "riv": 2015,
      "Ġhead": 2016,
      "rol": 2017,
      "Ġmessage": 2018,
      "à¤¬à¤¹": 2019,
      "ration": 2020,
      "ĠRes": 2021,
      "Ġmight": 2022,
      "oin": 2023,
      "Ġpolit": 2024,
      "eds": 2025,
      "Ġmer": 2026,
      "Ġput": 2027,
      "bs": 2028,
      "Ġà¤¦à¤¸": 2029,
      "à¤¯à¤¸": 2030,
      "Ġsocial": 2031,
      "icy": 2032,
      "Ġcompany": 2033,
      "Ġsit": 2034,
      "à¤·à¤®à¤¤": 2035,
      "fer": 2036,
      "Ġide": 2037,
      "ey": 2038,
      "Ġver": 2039,
      "Ġà¤Ĩà¤ı": 2040,
      "Ġwithin": 2041,
      "older": 2042,
      "Ġamount": 2043,
      "Ġà¤¸à¤«": 2044,
      "ID": 2045,
      "Ġvarious": 2046,
      "à¤¹à¤²": 2047,
      "Ġview": 2048,
      "ĠShri": 2049,
      "ĠAr": 2050,
      "Ġà¤ĸà¤¡": 2051,
      "Ġlarge": 2052,
      "ote": 2053,
      "land": 2054,
      "inc": 2055,
      "Ġwrong": 2056,
      "ĠOur": 2057,
      "Ġdone": 2058,
      "Ġreal": 2059,
      "Ġgoing": 2060,
      "Ġà¤¸à¤ľ": 2061,
      "Ġà¤¬à¤ľ": 2062,
      "à¤¬à¤¤": 2063,
      "ateg": 2064,
      "No": 2065,
      "Ġà¤Ńà¤²": 2066,
      "na": 2067,
      "med": 2068,
      "Ġfun": 2069,
      "Ġactiv": 2070,
      "ably": 2071,
      "Ġmind": 2072,
      "Ġincome": 2073,
      "Ġmove": 2074,
      "Ġtimes": 2075,
      "Ġfr": 2076,
      "ething": 2077,
      "lished": 2078,
      "Ġbody": 2079,
      "Then": 2080,
      "lf": 2081,
      "ury": 2082,
      "à¥Ģà¤Ĥ,": 2083,
      "Ġaccept": 2084,
      "à¤¤à¤°à¤£": 2085,
      "These": 2086,
      "ode": 2087,
      "à¤ħà¤§": 2088,
      "Ġleg": 2089,
      "Ġà¤ľà¤¨à¤¤": 2090,
      "Ch": 2091,
      "Ġpunish": 2092,
      "ording": 2093,
      "Ġthemselves": 2094,
      "Ġbetter": 2095,
      "line": 2096,
      "Ġ196": 2097,
      "ically": 2098,
      "ense": 2099,
      "à¤µà¤§": 2100,
      "Ġbas": 2101,
      "Ġwar": 2102,
      "ĠEng": 2103,
      "Ġsuccess": 2104,
      "Ġlevel": 2105,
      "Ġapplic": 2106,
      "Ġsurely": 2107,
      "Ġà¤ķà¤ł": 2108,
      "Ġà¤¯à¤ķ": 2109,
      "Ġfriend": 2110,
      "ulation": 2111,
      "ternal": 2112,
      "Ġpar": 2113,
      "Ġpop": 2114,
      "à¥Ī;": 2115,
      "Ġchang": 2116,
      "ues": 2117,
      "Ġà¤ľà¤Ĺà¤¹": 2118,
      "Ġallow": 2119,
      "Ġleft": 2120,
      "Ġappro": 2121,
      "à¤Ĩà¤ª": 2122,
      "rought": 2123,
      "à¤¼à¥Ī": 2124,
      "Ġà¤ĩà¤²": 2125,
      "ĠBook": 2126,
      "Ġà¤²à¤Ĺà¤Ńà¤Ĺ": 2127,
      "ex": 2128,
      "Ġtoo": 2129,
      "ĠFor": 2130,
      "Ġexper": 2131,
      "Ġà¤§à¤°à¤¤": 2132,
      "Ġkeep": 2133,
      "ĠRam": 2134,
      "alk": 2135,
      "ery": 2136,
      "par": 2137,
      "Ġdest": 2138,
      "wh": 2139,
      "Ġ'%": 2140,
      "Ġothers": 2141,
      "Ġbuild": 2142,
      "ĠTr": 2143,
      "Ġbank": 2144,
      "Ġà¤¶à¤¹à¤°": 2145,
      "itions": 2146,
      "Ġmar": 2147,
      "à¥¦à¥¦": 2148,
      "ining": 2149,
      "ON": 2150,
      "oint": 2151,
      "à¤®à¤Ĺ": 2152,
      "Ġà¤¹à¤Ł": 2153,
      "Ġà¥§à¥": 2154,
      "à¤ıà¤®": 2155,
      "Ġlanguage": 2156,
      "Ġless": 2157,
      "tp": 2158,
      "Ġà¤¸à¤¹à¤¯": 2159,
      "alf": 2160,
      "iron": 2161,
      "rah": 2162,
      "How": 2163,
      "Ġeducation": 2164,
      "Ġà¤ľà¤¬à¤ķ": 2165,
      "ason": 2166,
      "Ġresult": 2167,
      "ĠAn": 2168,
      "Ġ195": 2169,
      "Ġquest": 2170,
      "Ġfaith": 2171,
      "Ġà¤īà¤®": 2172,
      "Ġà¤¸à¤²": 2173,
      "ium": 2174,
      "ĠZ": 2175,
      "ief": 2176,
      "ron": 2177,
      "Ġdep": 2178,
      "Ġhist": 2179,
      "à¤Ńà¤°": 2180,
      "ĠTe": 2181,
      "Ġemploy": 2182,
      "atic": 2183,
      "ird": 2184,
      "ls": 2185,
      "à¤¹à¤°à¤£": 2186,
      "ator": 2187,
      "Ġkind": 2188,
      "à¤ªà¤Ł": 2189,
      "Ġoffic": 2190,
      "AN": 2191,
      "Ġden": 2192,
      "à¤£à¤¯": 2193,
      "Ġaddress": 2194,
      "Ġwindow": 2195,
      "Ġ16": 2196,
      "Ġdue": 2197,
      "Ġsoci": 2198,
      "Ġrev": 2199,
      "à¤¦à¤Ĺ": 2200,
      "Ġavailable": 2201,
      "Ġjud": 2202,
      "Ġtransl": 2203,
      "ala": 2204,
      "Se": 2205,
      "ization": 2206,
      "Do": 2207,
      "Ġ25": 2208,
      "cri": 2209,
      "Ġevil": 2210,
      "Ġà¤¹à¤ķ": 2211,
      "avan": 2212,
      "Ġtowards": 2213,
      "Un": 2214,
      "ead": 2215,
      "Ġ198": 2216,
      "uss": 2217,
      "Ġ194": 2218,
      "irc": 2219,
      "Al": 2220,
      "Ġnational": 2221,
      "ĠRaj": 2222,
      "ajor": 2223,
      "Ġà¤ļà¤°": 2224,
      "Ġtrad": 2225,
      "à¤®à¤¦": 2226,
      "Ġfree": 2227,
      "à¤ħà¤Ĺà¤°": 2228,
      "Ġhealth": 2229,
      "Ġcro": 2230,
      "Ġforg": 2231,
      "Ġtre": 2232,
      "à¤ħà¤ª": 2233,
      "Ġpoet": 2234,
      "à¤µà¤ľ": 2235,
      "Ġbenef": 2236,
      "Ġbo": 2237,
      "à¤§à¤°": 2238,
      "Ġrun": 2239,
      "à¤¸à¤²à¤®": 2240,
      "Ġinvest": 2241,
      "Ġunderstand": 2242,
      "):": 2243,
      "Ġlight": 2244,
      "rict": 2245,
      "à¤¾/": 2246,
      "ances": 2247,
      "Ġprote": 2248,
      "à¤Ĺà¤łà¤¨": 2249,
      "iversity": 2250,
      "erg": 2251,
      "IN": 2252,
      "ĠMan": 2253,
      "Ġdra": 2254,
      "Ġchange": 2255,
      "ĠIt": 2256,
      "ering": 2257,
      "ately": 2258,
      "Ġsche": 2259,
      "Ġ197": 2260,
      "Ġbrought": 2261,
      "jee": 2262,
      "à¤¸à¤µ": 2263,
      "meric": 2264,
      "Ġclass": 2265,
      "liament": 2266,
      "Ġspecial": 2267,
      "ternational": 2268,
      "Ġfamily": 2269,
      "rial": 2270,
      "Ġmet": 2271,
      "ram": 2272,
      "Ġexist": 2273,
      "orn": 2274,
      "ailed": 2275,
      "à¤¼à¥Ĥ": 2276,
      "ma": 2277,
      "ĠBut": 2278,
      "Ġissu": 2279,
      "ĠThis": 2280,
      "Ġplan": 2281,
      "Ġconst": 2282,
      "be": 2283,
      "That": 2284,
      "ising": 2285,
      "ENT": 2286,
      "Ġà¤¦à¤ķ": 2287,
      "used": 2288,
      "Ġfood": 2289,
      "//": 2290,
      "à¤¹à¤¤à¤°": 2291,
      "à¤ħà¤°": 2292,
      "ali": 2293,
      "Ġà¤«à¤°": 2294,
      "erc": 2295,
      "¯à¥": 2296,
      "?\"": 2297,
      "enger": 2298,
      "Ġmo": 2299,
      "itte": 2300,
      "ructure": 2301,
      "à¤Ĺà¤¨": 2302,
      "Ġdeath": 2303,
      "Ġsomething": 2304,
      "à¤¼à¥ĩà¤Ĥ": 2305,
      "Ġà¤Ĩà¤ĸ": 2306,
      "Ġà¤Ĩà¤¯à¤¤": 2307,
      "aim": 2308,
      "Ġ?": 2309,
      "put": 2310,
      "Ġlim": 2311,
      "à¤¦à¤¤": 2312,
      "à¤¿)": 2313,
      "Ġcause": 2314,
      "Ġvill": 2315,
      "urity": 2316,
      "://": 2317,
      "Â¾": 2318,
      "20": 2319,
      "Ġmembers": 2320,
      "ĠThey": 2321,
      "uty": 2322,
      "à¤ĩà¤¯": 2323,
      "han": 2324,
      "iful": 2325,
      "à¤ªà¤£": 2326,
      "Ġvalue": 2327,
      "Ġà¤ĭà¤£": 2328,
      "ceed": 2329,
      "Ġservice": 2330,
      "ĠDel": 2331,
      "à¤ļà¤ķ": 2332,
      "Ġfew": 2333,
      "ĠAl": 2334,
      "ource": 2335,
      "ready": 2336,
      "Ġarea": 2337,
      "Ġri": 2338,
      "Ġhouse": 2339,
      "ĠBrit": 2340,
      "Ġnear": 2341,
      "Ġà¤ıà¤¸": 2342,
      "Ġfar": 2343,
      "Ġmatter": 2344,
      "ivid": 2345,
      "Ġ13": 2346,
      "Ġà¤¶à¤¤": 2347,
      "ĠIslam": 2348,
      "Ġà¤ļà¤²à¤¤": 2349,
      "à¤ķà¤¹": 2350,
      "à¤ķà¤®": 2351,
      "à¤ĺà¤°": 2352,
      "Ġheavens": 2353,
      "isions": 2354,
      "At": 2355,
      "io": 2356,
      "ential": 2357,
      "à¤ķà¤µ": 2358,
      "hing": 2359,
      "Ġru": 2360,
      "Ġmarket": 2361,
      "Ġcommand": 2362,
      "Ġsubject": 2363,
      "à¤²à¤¸": 2364,
      "ification": 2365,
      "Ġwhole": 2366,
      "à¤²à¤®": 2367,
      "Ġtas": 2368,
      "Ġsend": 2369,
      "Ġbr": 2370,
      "for": 2371,
      "Ġà¤§à¤¨": 2372,
      "Ġcommon": 2373,
      "ference": 2374,
      "ĠSe": 2375,
      "urther": 2376,
      "Ġ14": 2377,
      "Ġlove": 2378,
      "Ġsupp": 2379,
      "het": 2380,
      "oney": 2381,
      "Ġà¤¶à¤ĸ": 2382,
      "à¤¾à¤ĥ": 2383,
      "Ġà¤¹à¤¸": 2384,
      "à¤°à¤²": 2385,
      "ĠMu": 2386,
      "reen": 2387,
      "à¤µà¤¶": 2388,
      "irit": 2389,
      "Ġassoci": 2390,
      "Ġà¤Ĩà¤¦à¤®": 2391,
      "ĠRs": 2392,
      "ukher": 2393,
      "Ġliter": 2394,
      "Ġpunishment": 2395,
      "ured": 2396,
      "raph": 2397,
      "nic": 2398,
      "opt": 2399,
      "Ġfather": 2400,
      "à¤ıà¤²": 2401,
      "Ġcountries": 2402,
      "ĠGu": 2403,
      "Ġhard": 2404,
      "à¤¸à¤Ń": 2405,
      "Ġprogram": 2406,
      "à¤®à¤ļ": 2407,
      "Ġcharact": 2408,
      "ukherjee": 2409,
      "ricult": 2410,
      "Ġfield": 2411,
      "Ġhig": 2412,
      "gether": 2413,
      "Ġtogether": 2414,
      "Ġsecond": 2415,
      "à¥Ī)": 2416,
      "Ġexpl": 2417,
      "nect": 2418,
      "à¤ħà¤Ń": 2419,
      "à¤łà¤²": 2420,
      "Ġey": 2421,
      "Ġage": 2422,
      "iqu": 2423,
      "ats": 2424,
      "ards": 2425,
      "11": 2426,
      "Ġgave": 2427,
      "ians": 2428,
      "Ġobject": 2429,
      "ocu": 2430,
      "Ġalready": 2431,
      "Ġmajor": 2432,
      "à¤²à¤°": 2433,
      "ems": 2434,
      "Ġx": 2435,
      "oss": 2436,
      "Ġprovided": 2437,
      "Ġfund": 2438,
      "ently": 2439,
      "umb": 2440,
      "Ġcare": 2441,
      "Ġop": 2442,
      "ability": 2443,
      "Ġkg": 2444,
      "ges": 2445,
      "Ġlittle": 2446,
      "Ġnet": 2447,
      "Ġà¤®à¤¸": 2448,
      "Ġparticular": 2449,
      "ait": 2450,
      "à¤īà¤¸à¤¨": 2451,
      "iver": 2452,
      "Ġà¤¨à¤®": 2453,
      "Ġrese": 2454,
      "ME": 2455,
      "Ġcr": 2456,
      "à¤°à¤¥à¤®": 2457,
      "cing": 2458,
      "Â¥Âį": 2459,
      "Ġproduct": 2460,
      "ĠBhavan": 2461,
      "Ġhimself": 2462,
      "Ġplac": 2463,
      "isation": 2464,
      "ĠDelhi": 2465,
      "Ġeng": 2466,
      "Ġà¤ħà¤ªà¤°": 2467,
      "Ġservices": 2468,
      "Ġ30": 2469,
      "Ġbre": 2470,
      "ĠSing": 2471,
      "Ġann": 2472,
      "Ġple": 2473,
      "Ġnon": 2474,
      "Ġbeg": 2475,
      "à¤¹à¤¸": 2476,
      "ories": 2477,
      "bar": 2478,
      "agement": 2479,
      "section": 2480,
      "Ġcomput": 2481,
      "Ġà¤¨à¤¦": 2482,
      "Ġperform": 2483,
      "à¤°à¤Ĺ": 2484,
      "ĠCour": 2485,
      "Ġdata": 2486,
      ";(": 2487,
      "12": 2488,
      "à¥§à¥": 2489,
      "Ġfollowing": 2490,
      "Ġpract": 2491,
      "Ġbased": 2492,
      "Ġtrue": 2493,
      "reng": 2494,
      "Ġ17": 2495,
      "Ġthought": 2496,
      "Ġtook": 2497,
      "tal": 2498,
      "Ġgod": 2499,
      "ĠNew": 2500,
      "ession": 2501,
      "Ġrul": 2502,
      "ĠCentral": 2503,
      "Ġpolitical": 2504,
      "iding": 2505,
      "Ġsw": 2506,
      "Ġenc": 2507,
      "IT": 2508,
      "ling": 2509,
      "Ġstill": 2510,
      "ying": 2511,
      "à¤łà¤ķ": 2512,
      "à¤°à¤ļà¤¨": 2513,
      "Ġmill": 2514,
      "Ġrespons": 2515,
      "http": 2516,
      "ger": 2517,
      "Ġconsider": 2518,
      "adesh": 2519,
      "Ġareas": 2520,
      "Ġwords": 2521,
      "Ġdate": 2522,
      "Ġreve": 2523,
      "ancial": 2524,
      "ĠSo": 2525,
      "Ġaround": 2526,
      "à¤²à¤µ": 2527,
      "Ġabove": 2528,
      "Ġeas": 2529,
      "Ġnight": 2530,
      "à¤¨à¤¯": 2531,
      "ividual": 2532,
      "ranab": 2533,
      "Ġaction": 2534,
      "akes": 2535,
      "à¥Įà¤Ĥ": 2536,
      "Ġdel": 2537,
      "come": 2538,
      "Ġà¤īà¤ªà¤§": 2539,
      "ogn": 2540,
      "Ġmaking": 2541,
      "Ġworship": 2542,
      "Ġà¤®à¤Ĺà¤°": 2543,
      "uro": 2544,
      "Ġpolicy": 2545,
      "Ġthough": 2546,
      "lo": 2547,
      "Ġself": 2548,
      "aining": 2549,
      "Ġcost": 2550,
      "Ġnation": 2551,
      "Ġable": 2552,
      "ara": 2553,
      "els": 2554,
      "RES": 2555,
      "ners": 2556,
      "rapati": 2557,
      "viron": 2558,
      "str": 2559,
      "Ġcapital": 2560,
      "à¤§à¤ķ": 2561,
      "Ġseen": 2562,
      "Ġà¤°à¤ļà¤¨": 2563,
      "Ġreport": 2564,
      "Name": 2565,
      "oub": 2566,
      "Ġprovide": 2567,
      "Ġà¤ªà¤¹à¤ļ": 2568,
      "Ġcal": 2569,
      "Ġhold": 2570,
      "Ġsing": 2571,
      "eous": 2572,
      "Ġà¤ħà¤µà¤¸": 2573,
      "Ġtype": 2574,
      "idence": 2575,
      "sp": 2576,
      "Ġeconomic": 2577,
      "OR": 2578,
      "ilit": 2579,
      "af": 2580,
      "ilities": 2581,
      "Ġsigns": 2582,
      "à¤Ĩà¤ľ": 2583,
      "His": 2584,
      "AL": 2585,
      "Ġtax": 2586,
      "Ġalways": 2587,
      "Ġtest": 2588,
      "Ġhaving": 2589,
      "Ġ''": 2590,
      "à¤°à¤ļ": 2591,
      "artment": 2592,
      "Ġstreng": 2593,
      "andhi": 2594,
      "Ġreligion": 2595,
      "à¤µà¤ļ": 2596,
      "ope": 2597,
      "Ġcontrol": 2598,
      "Ġnecess": 2599,
      "eness": 2600,
      "Ġsol": 2601,
      "cil": 2602,
      "Ġà¤¨à¤ı": 2603,
      "IS": 2604,
      "ĠDep": 2605,
      "icult": 2606,
      "resent": 2607,
      "Ġà¤ķà¤Ł": 2608,
      "HE": 2609,
      "Ġpath": 2610,
      "itness": 2611,
      "ashtrapati": 2612,
      "Ġsociety": 2613,
      "ĠMe": 2614,
      "oura": 2615,
      "lection": 2616,
      "reme": 2617,
      "Ġbelong": 2618,
      "Ġà¤ľà¤µ": 2619,
      "à¤®à¤¯": 2620,
      "akh": 2621,
      "epend": 2622,
      "ĠIf": 2623,
      "Ġasse": 2624,
      "à¤²à¤ķà¤°": 2625,
      "itor": 2626,
      "Ġlocal": 2627,
      "Ġschool": 2628,
      "Ġà¤¦à¤²": 2629,
      "vironment": 2630,
      "Ġregard": 2631,
      "chie": 2632,
      "Ġbecame": 2633,
      "Ġthing": 2634,
      "Ġalong": 2635,
      "Ġà¥¨": 2636,
      "Â¤Âķ": 2637,
      "bo": 2638,
      "Ġindividual": 2639,
      "Â¤Â°": 2640,
      "Ġve": 2641,
      "ĠAd": 2642,
      "à¤¶à¤°": 2643,
      "udd": 2644,
      "ames": 2645,
      "à¤Ķ": 2646,
      "Ġever": 2647,
      "Ġlater": 2648,
      "Ġorig": 2649,
      "Ġà¤¹à¤²": 2650,
      "à¤¿-": 2651,
      "10": 2652,
      "ĠBritish": 2653,
      "Ġpray": 2654,
      "à¤°à¤ª": 2655,
      "Ġinit": 2656,
      "ĠStates": 2657,
      "Ġpain": 2658,
      "à¤īà¤¤": 2659,
      "Ġmus": 2660,
      "à¤·à¤°": 2661,
      "minist": 2662,
      "ĠCommission": 2663,
      "à¤ıà¤¨": 2664,
      "à¤¸à¤¬": 2665,
      "ises": 2666,
      "by": 2667,
      "à¤Łà¤®": 2668,
      "Ġà¤®à¤ķ": 2669,
      "ĠMy": 2670,
      "Ġmean": 2671,
      "ream": 2672,
      "Ġprob": 2673,
      "ta": 2674,
      "Ġinstru": 2675,
      "istry": 2676,
      "à¤¾;": 2677,
      "Ġside": 2678,
      "à¤ĩà¤¸à¤²": 2679,
      "à¤¯à¤¯à¤¨": 2680,
      "à¤¥à¤²": 2681,
      "aled": 2682,
      "Ġposition": 2683,
      "Ġyoung": 2684,
      "Ġuntil": 2685,
      "Ġkgm": 2686,
      "ĠAss": 2687,
      "Ġtherefore": 2688,
      "Ġcurrent": 2689,
      "br": 2690,
      "ann": 2691,
      "Ġwhose": 2692,
      "Ġel": 2693,
      "Ġà¤¹à¤µ": 2694,
      "ribut": 2695,
      "uct": 2696,
      "Ġsector": 2697,
      "Ġfive": 2698,
      "à¥Īà¥¤\"": 2699,
      "Ġà¤ħà¤«": 2700,
      "Ġà¤łà¤¹à¤°": 2701,
      "ĠPl": 2702,
      "En": 2703,
      "arent": 2704,
      "Ġpost": 2705,
      "htm": 2706,
      "omes": 2707,
      "oses": 2708,
      "à¤¥à¤°": 2709,
      "ched": 2710,
      "Ġà¤ĺà¤Łà¤¨": 2711,
      "Ġwhether": 2712,
      "à¤¶à¤²": 2713,
      "aring": 2714,
      "Ġincluding": 2715,
      "Ġhearts": 2716,
      "Ġpoint": 2717,
      "Ġà¤¸à¤µ": 2718,
      "gu": 2719,
      "Ġ193": 2720,
      "Ġspirit": 2721,
      "Ġvers": 2722,
      "eration": 2723,
      "Ġexpress": 2724,
      "Ġfurther": 2725,
      "Ġà¤¤à¤¹à¤¤": 2726,
      "à¤Ńà¤ķ": 2727,
      "à¤¾?": 2728,
      "ĠBeng": 2729,
      "Ġeffort": 2730,
      "Ġoccas": 2731,
      "ours": 2732,
      "outh": 2733,
      "ittee": 2734,
      "Ġà¤Ńà¤µ": 2735,
      "Ġrefer": 2736,
      "Ġà¤ıà¤¨": 2737,
      "Ġhome": 2738,
      "Ġnothing": 2739,
      "Ġmeas": 2740,
      "Ġaut": 2741,
      "Say": 2742,
      "à¤£à¤¤": 2743,
      "ware": 2744,
      "ammad": 2745,
      "Ġfarm": 2746,
      "ier": 2747,
      "after": 2748,
      "Ġsince": 2749,
      "Ġachie": 2750,
      "Ġfav": 2751,
      "Ġgrowth": 2752,
      "Ġà¤Ĩà¤¸à¤®": 2753,
      "ĠAb": 2754,
      "ivil": 2755,
      "à¥Ī-": 2756,
      "à¤ħà¤®": 2757,
      "ails": 2758,
      "à¤Ĩà¤ªà¤ķ": 2759,
      "ened": 2760,
      "Ġlive": 2761,
      "Ġseek": 2762,
      "Ġà¤¸à¤¬à¤ķ": 2763,
      "Ġcreat": 2764,
      "lling": 2765,
      "ww": 2766,
      "Ġyet": 2767,
      "augh": 2768,
      "Ġnext": 2769,
      "à¤Ĺà¤¦": 2770,
      "ustom": 2771,
      "Ġà¤¦à¤¯": 2772,
      "Ġcomplete": 2773,
      "Ġenter": 2774,
      "Ġfeel": 2775,
      "Ġnature": 2776,
      "After": 2777,
      "atch": 2778,
      "play": 2779,
      "Ġshort": 2780,
      "dom": 2781,
      "cribed": 2782,
      "à¤°à¤Ĺà¤¤": 2783,
      "à¤ªà¤¦": 2784,
      "Ġdiff": 2785,
      "ĠEnglish": 2786,
      "ĠHindi": 2787,
      "ĠHindu": 2788,
      "Ġcreate": 2789,
      "à¤ĳ": 2790,
      "illed": 2791,
      "à¤·à¤¦": 2792,
      "Ġà¤ĩà¤ķ": 2793,
      "à¤°à¤®à¤£": 2794,
      "Ġquestion": 2795,
      "Ġheld": 2796,
      "Ġreason": 2797,
      "ĠCong": 2798,
      "incip": 2799,
      "à¥Ĥà¤Ĥà¥¤": 2800,
      "itional": 2801,
      "ication": 2802,
      "Con": 2803,
      "Ġà¤ķà¤¨": 2804,
      "à¤Ĺà¤¡": 2805,
      "Ġport": 2806,
      "à¤ľà¤¸": 2807,
      "ached": 2808,
      "pportun": 2809,
      "Ġà¤īà¤ªà¤¸": 2810,
      "Ġindustry": 2811,
      "Ġsever": 2812,
      "à¤Ĩà¤¤": 2813,
      "Ġut": 2814,
      "à¤¤à¤²": 2815,
      "most": 2816,
      "ources": 2817,
      "ences": 2818,
      "Ġreceived": 2819,
      "pose": 2820,
      "Ġtotal": 2821,
      "Ġà¤ªà¤¸": 2822,
      "à¤īà¤¦": 2823,
      "200": 2824,
      "Ġstarted": 2825,
      "icle": 2826,
      "Ġà¤¨à¤ķ": 2827,
      "hy": 2828,
      "Ġguid": 2829,
      "Ġimpro": 2830,
      "Ġpossible": 2831,
      "Ġbelievers": 2832,
      "Ġwitness": 2833,
      "Ġhands": 2834,
      "She": 2835,
      "Ġdeeds": 2836,
      "Ġmater": 2837,
      "men": 2838,
      "Ġcirc": 2839,
      "Ġmult": 2840,
      "Ġclause": 2841,
      "Ġes": 2842,
      "à¤¯à¤µà¤¹": 2843,
      "Ġà¤¹à¤ľ": 2844,
      "ĠSingh": 2845,
      "Ġpeace": 2846,
      "ĠSec": 2847,
      "ĠNo": 2848,
      "just": 2849,
      "lu": 2850,
      "ĠParliament": 2851,
      "Ġwent": 2852,
      "erve": 2853,
      "IC": 2854,
      "Ġopportun": 2855,
      "à¥¨": 2856,
      "atever": 2857,
      "à¥Īà¤Ĥ?": 2858,
      "Ġstrong": 2859,
      "Ġfolder": 2860,
      "à¤ľà¤ķ": 2861,
      "hammad": 2862,
      "Ġthee": 2863,
      "Ġeither": 2864,
      "istan": 2865,
      "Ġgot": 2866,
      "ouncil": 2867,
      "Ġinstitut": 2868,
      "Ġson": 2869,
      "Ġ50": 2870,
      "Ġexample": 2871,
      "à¥ĩ?": 2872,
      "Ġdon": 2873,
      "ribution": 2874,
      "Ġsitu": 2875,
      "Ġmoney": 2876,
      "ĠCongress": 2877,
      "val": 2878,
      "Ġrecord": 2879,
      "Ġcourt": 2880,
      "opy": 2881,
      "way": 2882,
      "rem": 2883,
      "eneral": 2884,
      "Â¥Âĩ": 2885,
      "à¤ļà¤¤": 2886,
      "rodu": 2887,
      "à¥ĭà¤Ĥ)": 2888,
      "ior": 2889,
      "Ġà¤Īà¤¸": 2890,
      "Ġtext": 2891,
      "ibility": 2892,
      "ĠCourt": 2893,
      "Ġmor": 2894,
      "Ġà¤¨à¤¸": 2895,
      "Ġdise": 2896,
      "Ġbig": 2897,
      "Ġà¤ĳà¤«": 2898,
      "Ġequal": 2899,
      "Ġforeign": 2900,
      "Ġdr": 2901,
      "Ġà¤Ĩà¤ķà¤°": 2902,
      "Ġfunction": 2903,
      "Ġitself": 2904,
      "Ġleave": 2905,
      "Ġbrother": 2906,
      "aster": 2907,
      "India": 2908,
      "ĠOr": 2909,
      "otion": 2910,
      "Ġrequired": 2911,
      "cent": 2912,
      "pur": 2913,
      "Ġà¤¤à¤ķà¤¨": 2914,
      "à¤µà¤ľà¤¨": 2915,
      "pecial": 2916,
      "Ġseveral": 2917,
      "isl": 2918,
      "Ġmother": 2919,
      "Ġà¤ªà¤°à¤®": 2920,
      "Ġair": 2921,
      "De": 2922,
      "ross": 2923,
      "change": 2924,
      "rael": 2925,
      "Ġà¤ªà¤Ł": 2926,
      "Ġprobably": 2927,
      "ilt": 2928,
      "iation": 2929,
      "à¥Ģà¤ĥ": 2930,
      "stitute": 2931,
      "Ġi": 2932,
      "Ġflow": 2933,
      "Ġface": 2934,
      "à¤Łà¤¤": 2935,
      "Ġcred": 2936,
      "Ġà¤Ĭà¤°": 2937,
      "ively": 2938,
      "Ġkey": 2939,
      "Ġdocu": 2940,
      "ĠGandhi": 2941,
      "One": 2942,
      "Ġ24": 2943,
      "My": 2944,
      "cious": 2945,
      "Ġ100": 2946,
      "à¤Ĺà¤µ": 2947,
      "Ġconcern": 2948,
      "Ġhistory": 2949,
      "hold": 2950,
      "Ġrelations": 2951,
      "Ġà¤¸à¤®à¤Ŀà¤¤": 2952,
      "à¤ĩà¤¡": 2953,
      "Ġcharacter": 2954,
      "Ġpriv": 2955,
      "Ġdom": 2956,
      "Ġur": 2957,
      "ĠRashtrapati": 2958,
      "Ġà¤Ĺà¤¹à¤°": 2959,
      "Ġz": 2960,
      "ony": 2961,
      "Ġanim": 2962,
      "Ġà¤ªà¤ķà¤¡": 2963,
      "plement": 2964,
      "Ġshare": 2965,
      "à¤¦à¤¯": 2966,
      "uture": 2967,
      "à¤ıà¤«": 2968,
      "Can": 2969,
      "ek": 2970,
      "Ġprevious": 2971,
      "Ġtranslation": 2972,
      "Ġknows": 2973,
      "Ġà¤ħà¤Ĺà¤²": 2974,
      "Ġactivities": 2975,
      "ude": 2976,
      "Ġproduction": 2977,
      "Ġprogress": 2978,
      "ches": 2979,
      "with": 2980,
      "à¤ĩà¤¸à¤®": 2981,
      "uf": 2982,
      "ton": 2983,
      "ets": 2984,
      "Ġrepresent": 2985,
      "urope": 2986,
      "Ġstat": 2987,
      "Ġà¤Ĺà¤£": 2988,
      "ĠAg": 2989,
      "mber": 2990,
      "Ġresearch": 2991,
      "Ġdifficult": 2992,
      "ĠMessenger": 2993,
      "IDENT": 2994,
      "Ġselected": 2995,
      "Ġcity": 2996,
      "aps": 2997,
      "Ġcontact": 2998,
      "aries": 2999,
      "Ġtechnology": 3000,
      "osp": 3001,
      "Ġoccasion": 3002,
      "ills": 3003,
      "Ġà¤¨à¤°": 3004,
      "Ġforth": 3005,
      "Ġà¤®à¤ľà¤¬": 3006,
      "Our": 3007,
      "Ġtop": 3008,
      "unt": 3009,
      "à¤ªà¤¡": 3010,
      "Ġauthority": 3011,
      "à¤¹à¤®à¤¨": 3012,
      "Ġlink": 3013,
      "Ġ)": 3014,
      "à¤¬à¤Ī": 3015,
      "Ġopp": 3016,
      "rab": 3017,
      "Ġconnect": 3018,
      "ION": 3019,
      "Ġrate": 3020,
      "Ġapplication": 3021,
      "RESIDENT": 3022,
      "Ġà¤ħà¤µà¤¶": 3023,
      "cell": 3024,
      "Ġà¤ķà¤¬": 3025,
      "à¤ĸà¤²": 3026,
      "earch": 3027,
      "ilar": 3028,
      "Ġreward": 3029,
      "ĠSub": 3030,
      "ograph": 3031,
      "Ġcourse": 3032,
      "Ġà¤īà¤ªà¤¬": 3033,
      "Ġsat": 3034,
      "à¤ľà¤Ĺ": 3035,
      "Ġà¤Ĩà¤ªà¤¸": 3036,
      "mission": 3037,
      "Ġvisit": 3038,
      "une": 3039,
      "Ġmis": 3040,
      "Ġplant": 3041,
      "Ġanything": 3042,
      "ully": 3043,
      "Ġrecogn": 3044,
      "Ġà¤¸à¤«à¤²à¤¤": 3045,
      "Ġelect": 3046,
      "Ġcontinu": 3047,
      "Those": 3048,
      "Ġestablished": 3049,
      "Ġcommit": 3050,
      "Ġusing": 3051,
      "ĠPradesh": 3052,
      "ault": 3053,
      "obal": 3054,
      "Ġobs": 3055,
      "ape": 3056,
      "Ġà¤¤à¤®": 3057,
      "osed": 3058,
      "Ġà¤¨à¤ľ": 3059,
      "know": 3060,
      "ina": 3061,
      "Ġstr": 3062,
      "Ġsum": 3063,
      "irth": 3064,
      "imum": 3065,
      "abha": 3066,
      "Ġà¤¦à¤¶": 3067,
      "Ġentire": 3068,
      "Ġmaterial": 3069,
      "acity": 3070,
      "Ġdeal": 3071,
      "ĠTHE": 3072,
      "Ġaccess": 3073,
      "Ġcertainly": 3074,
      "Ġfall": 3075,
      "Ġnecessary": 3076,
      "optional": 3077,
      "Ġlab": 3078,
      "IA": 3079,
      "Ġill": 3080,
      "atural": 3081,
      "that": 3082,
      "ĠAmeric": 3083,
      "à¤¥à¤ķ": 3084,
      "urely": 3085,
      "Ġà¤Ĺà¤µ": 3086,
      "Ġquality": 3087,
      "à¤¤à¤¬": 3088,
      "Ġwritten": 3089,
      "ĠUniversity": 3090,
      "Ġbehind": 3091,
      "à¥Īà¤ĥ": 3092,
      "Ġfinancial": 3093,
      "Ġdemand": 3094,
      "Ġworking": 3095,
      "ĠHouse": 3096,
      "ĠIsrael": 3097,
      "ĠBank": 3098,
      "Ġà¤ıà¤®": 3099,
      "sw": 3100,
      "Ġà¤īà¤¡": 3101,
      "Ġpurpose": 3102,
      "Or": 3103,
      "Some": 3104,
      "side": 3105,
      "Ġdoub": 3106,
      "Ġà¤īà¤ªà¤ķà¤°à¤£": 3107,
      "ĠâĢĻ": 3108,
      "Show": 3109,
      "Ġstory": 3110,
      "mp": 3111,
      "itiz": 3112,
      "à¤ħà¤¸": 3113,
      "ung": 3114,
      "Ġleaders": 3115,
      "à¤¯à¤¯": 3116,
      "Ġfuture": 3117,
      "Ġagricult": 3118,
      "ethod": 3119,
      "Is": 3120,
      "Ġident": 3121,
      "Ġredu": 3122,
      "Ġmonths": 3123,
      "Ġenj": 3124,
      "Ġsuff": 3125,
      "Ġcomes": 3126,
      "reedom": 3127,
      "Ġà¤¯à¤¥": 3128,
      "Ġlot": 3129,
      "Re": 3130,
      "Ġerror": 3131,
      "Ġinn": 3132,
      "bsite": 3133,
      "velopment": 3134,
      "ones": 3135,
      "ĠRe": 3136,
      "Ġmag": 3137,
      "Ġcommunity": 3138,
      "rish": 3139,
      "Ġmodern": 3140,
      "Ġasked": 3141,
      "Ġprovisions": 3142,
      "Ġsix": 3143,
      "aun": 3144,
      "Ġharm": 3145,
      "Ġline": 3146,
      "Ġdecl": 3147,
      "With": 3148,
      "Ġ|": 3149,
      "Ġworks": 3150,
      "ension": 3151,
      "Ġtransfer": 3152,
      "Ġcell": 3153,
      "Ġgrant": 3154,
      "iet": 3155,
      "à¤ħà¤ľ": 3156,
      "Ġcentury": 3157,
      "18": 3158,
      "Ġproperty": 3159,
      "Ġmeeting": 3160,
      "Ġvi": 3161,
      "Ġens": 3162,
      "Ġà¤ĩà¤ļ": 3163,
      "over": 3164,
      "Ġfight": 3165,
      "Ġassess": 3166,
      "aut": 3167,
      "Ġtreat": 3168,
      "Ġparty": 3169,
      "Ġonce": 3170,
      "Ġtrust": 3171,
      "Ġten": 3172,
      "Ġlib": 3173,
      "à¤°à¤¸à¤¨": 3174,
      "Ġà¤µà¤ľà¤¹": 3175,
      "50": 3176,
      "Ġrelated": 3177,
      "Ġsecurity": 3178,
      "Ġproblem": 3179,
      "ison": 3180,
      "ama": 3181,
      "Ġliving": 3182,
      "Ġtold": 3183,
      "idered": 3184,
      "Ġagree": 3185,
      "airs": 3186,
      "Ġdeb": 3187,
      "Ġscheme": 3188,
      "Ġadminist": 3189,
      "ĠOffic": 3190,
      "Ġded": 3191,
      "ji": 3192,
      "Ġ+": 3193,
      "à¤ĸà¤ķ": 3194,
      "Ġhigher": 3195,
      "Ġrole": 3196,
      "ĠWho": 3197,
      "ĠRep": 3198,
      "aged": 3199,
      "ideo": 3200,
      "Ġsoul": 3201,
      "Ġdri": 3202,
      "see": 3203,
      "à¤¯à¤¶": 3204,
      "Ġnetwork": 3205,
      "urs": 3206,
      "à¤°à¤¹à¤£": 3207,
      "Ġà¤Ĩà¤²": 3208,
      "ĠDo": 3209,
      "Ġpast": 3210,
      "Ġà¤īà¤¨à¤ªà¤°": 3211,
      "Ġwhy": 3212,
      "ruction": 3213,
      "Ġtell": 3214,
      "ointed": 3215,
      "action": 3216,
      "Ġparts": 3217,
      "Ġimage": 3218,
      "app": 3219,
      "Ġclose": 3220,
      "ategory": 3221,
      "Ġfire": 3222,
      "Ġpub": 3223,
      "à¤°à¤ķà¤Ł": 3224,
      "Allah": 3225,
      "Ġaccording": 3226,
      "esides": 3227,
      "ush": 3228,
      "Ġhowever": 3229,
      "cut": 3230,
      "Ġsoon": 3231,
      "Ġgreater": 3232,
      "go": 3233,
      "Ġenerg": 3234,
      "Now": 3235,
      "Ġhon": 3236,
      "à¤¸à¤¹": 3237,
      "Ġà¤®à¤¶": 3238,
      "Ġsave": 3239,
      "lier": 3240,
      "Ġstep": 3241,
      "mitted": 3242,
      "Ġreferred": 3243,
      "cient": 3244,
      "Ġà¤ļà¤¯à¤¨": 3245,
      "Ġconsidered": 3246,
      "itation": 3247,
      "ĠMuslims": 3248,
      "word": 3249,
      "Ġdoing": 3250,
      "ĠConstitution": 3251,
      "Ġhy": 3252,
      "then": 3253,
      "Ġ@": 3254,
      "uly": 3255,
      "Ġà¤¤à¤²": 3256,
      "Ġproblems": 3257,
      "Ġà¤ıà¤ķà¤¤": 3258,
      "ipp": 3259,
      "ani": 3260,
      "Ġstudents": 3261,
      "à¤ľà¤¤": 3262,
      "rec": 3263,
      "urd": 3264,
      "ival": 3265,
      "Ġtill": 3266,
      "Ġimplement": 3267,
      "itive": 3268,
      "olk": 3269,
      "Ġking": 3270,
      "Ġneeds": 3271,
      "Ġenvironment": 3272,
      "atives": 3273,
      "Ġà¤¬à¤¯": 3274,
      "ĠMinistry": 3275,
      "Ġinstitutions": 3276,
      "à¥ĥà¤Ĥ": 3277,
      "Ġtherein": 3278,
      "hood": 3279,
      "Ġterror": 3280,
      "Ġmount": 3281,
      "Ġones": 3282,
      "Ġrele": 3283,
      "Ġclaim": 3284,
      "16": 3285,
      "istic": 3286,
      "ĠComp": 3287,
      "Ġchanges": 3288,
      "aves": 3289,
      "lled": 3290,
      "Ġforward": 3291,
      "Ġrepl": 3292,
      "à¤Ĥ,": 3293,
      "Ġfiles": 3294,
      "Ġstri": 3295,
      "rast": 3296,
      "Ġwhatever": 3297,
      "amed": 3298,
      "Ġmercy": 3299,
      "ned": 3300,
      "ĠBo": 3301,
      "Ġmethod": 3302,
      "à¤ķà¤ª": 3303,
      "âĢĵ": 3304,
      "Ġsepar": 3305,
      "Ġoften": 3306,
      "Ġ26": 3307,
      "Ġhath": 3308,
      "14": 3309,
      "omb": 3310,
      "tt": 3311,
      "à¤®à¤®": 3312,
      "Ġdesign": 3313,
      "ored": 3314,
      "Ġmovement": 3315,
      "ĠUnion": 3316,
      "orth": 3317,
      "Ġwebsite": 3318,
      "acher": 3319,
      "Add": 3320,
      "Ġgoods": 3321,
      "Ġ=": 3322,
      "Ġbelieved": 3323,
      "poses": 3324,
      "medi": 3325,
      "Ġ000": 3326,
      "Ġpaid": 3327,
      "ĠBengal": 3328,
      "Ġinvol": 3329,
      "Ġreligious": 3330,
      "Ġprep": 3331,
      "Ġinternational": 3332,
      "engers": 3333,
      "Ġeyes": 3334,
      "Ġoffice": 3335,
      "Ġ*": 3336,
      "ke": 3337,
      "krit": 3338,
      "ĠServ": 3339,
      "ita": 3340,
      "Ġmillion": 3341,
      ".'": 3342,
      "Ġmail": 3343,
      "orld": 3344,
      "à¥ĭ!": 3345,
      "ĠIND": 3346,
      "Ġreally": 3347,
      "Ġà¤¸à¤®à¤ķ": 3348,
      "Ġrevealed": 3349,
      "à¤¼à¥ī": 3350,
      "att": 3351,
      "reet": 3352,
      "ires": 3353,
      "Ġlearn": 3354,
      "Ġà¤ľà¤¹à¤¨": 3355,
      "Ġguidance": 3356,
      "à¤ľà¤µ": 3357,
      "ples": 3358,
      "Ġground": 3359,
      "Ġspecified": 3360,
      "Ġbuilding": 3361,
      "Ġwarn": 3362,
      "Ġforce": 3363,
      "acy": 3364,
      "Ġà¤Ķà¤°à¤¤": 3365,
      "ĠUs": 3366,
      "ological": 3367,
      "à¤ĩà¤¸à¤¸": 3368,
      "Ġbar": 3369,
      "Ġblood": 3370,
      "leg": 3371,
      "Could": 3372,
      "my": 3373,
      "à¥ĭ-": 3374,
      "Ġdiscuss": 3375,
      "amb": 3376,
      "AP": 3377,
      "Ġenergy": 3378,
      "Ġà¤ªà¤²": 3379,
      "orrow": 3380,
      "Ġfreedom": 3381,
      "Ġbasis": 3382,
      "Ġà¤ħà¤¸à¤®": 3383,
      "à¤ĵà¤Ĺ": 3384,
      "Ġsal": 3385,
      "aper": 3386,
      "Ġdeterm": 3387,
      "Ġabs": 3388,
      "à¤°à¤°": 3389,
      "à¤¬à¤¡": 3390,
      "ĠReg": 3391,
      "ĠCommittee": 3392,
      "Ġà¤¦à¤¬": 3393,
      "ĠRRB": 3394,
      "ĠEn": 3395,
      "à¥Īà¤Ĥ)": 3396,
      "Ġpot": 3397,
      "Ġter": 3398,
      "Ġbegin": 3399,
      "Ġscient": 3400,
      "Ġà¤īà¤ªà¤¨": 3401,
      "à¤ħà¤ļ": 3402,
      "Â¤Â¸": 3403,
      "Ġphys": 3404,
      "fully": 3405,
      "Ġprincip": 3406,
      "Ġimm": 3407,
      "ĠPrime": 3408,
      "cription": 3409,
      "irt": 3410,
      "Ġ192": 3411,
      "imate": 3412,
      "Ġsingle": 3413,
      "isc": 3414,
      "15": 3415,
      "Ġterms": 3416,
      "Ġess": 3417,
      "à¤®à¤£": 3418,
      "ĠCouncil": 3419,
      "Ġ23": 3420,
      "Ġbooks": 3421,
      "Ġvillage": 3422,
      "Ġcrit": 3423,
      "Ġsuper": 3424,
      "vent": 3425,
      "Â¤Â¿": 3426,
      "Ġappointed": 3427,
      "uran": 3428,
      "Go": 3429,
      "à¤¸à¤ª": 3430,
      "ouses": 3431,
      "Ġculture": 3432,
      "Ġcivil": 3433,
      "ousand": 3434,
      "Ġwis": 3435,
      "erily": 3436,
      "Ġspeak": 3437,
      "Ġpassed": 3438,
      "Ġturned": 3439,
      "Ġextend": 3440,
      "asing": 3441,
      "Ġà¤Ĺà¤²à¤¤": 3442,
      "aint": 3443,
      "use": 3444,
      "ĠAf": 3445,
      "Ġiniti": 3446,
      "Ġvol": 3447,
      "Ġgeneral": 3448,
      "à¤Łà¤µà¤°": 3449,
      "à¤īà¤ª": 3450,
      "Ġcitiz": 3451,
      "Ġarch": 3452,
      "Ġparticip": 3453,
      "Ġpress": 3454,
      "Ġspread": 3455,
      "Ġcomputer": 3456,
      "pro": 3457,
      "à¤ªà¤¹à¤²": 3458,
      "Ġdeep": 3459,
      "ĠDevelopment": 3460,
      "phet": 3461,
      "à¤¨à¤¹": 3462,
      "Ġà¤Ĩà¤¦à¤°": 3463,
      "eb": 3464,
      "oice": 3465,
      "Ġrighteous": 3466,
      "roy": 3467,
      "Ġà¤ĺà¤Ł": 3468,
      "ech": 3469,
      "-#": 3470,
      "à¥«": 3471,
      "RRB": 3472,
      "Ġverily": 3473,
      "Ġmention": 3474,
      "à¤ħà¤ķ": 3475,
      "new": 3476,
      "ript": 3477,
      "ell": 3478,
      "Ġloss": 3479,
      "à¤Łà¤µ": 3480,
      "By": 3481,
      "oid": 3482,
      "war": 3483,
      "vi": 3484,
      "ĠCol": 3485,
      "Ġà¤«à¤²": 3486,
      "Ġmakes": 3487,
      "Ġmanner": 3488,
      "bit": 3489,
      "Ġà¤Ľà¤µ": 3490,
      "ĠGovern": 3491,
      "à¤¤à¤ľ": 3492,
      "à¤ĩà¤ķ": 3493,
      "ulf": 3494,
      "Ġ22": 3495,
      "à¤Ĺà¤£": 3496,
      "à¥Ĥà¤ģà¥¤": 3497,
      "à¥ħ": 3498,
      "Ġcheck": 3499,
      "Ġtalk": 3500,
      "Ġà¤Ķà¤¦": 3501,
      "Ġà¤ħà¤°à¤¬": 3502,
      "Ġcustom": 3503,
      "Ġpersons": 3504,
      "aff": 3505,
      "13": 3506,
      "rs": 3507,
      "Ġsense": 3508,
      "Ġsin": 3509,
      "sequ": 3510,
      "Ġexpect": 3511,
      "à¤°à¤ĸ": 3512,
      "Ġgen": 3513,
      "Ġcarry": 3514,
      "Ġpen": 3515,
      "ĠLRB": 3516,
      "LRB": 3517,
      "Ġtemple": 3518,
      "ĠX": 3519,
      "Ġlay": 3520,
      "Ġtrade": 3521,
      "Ġthy": 3522,
      "Ġprotect": 3523,
      "Â¤ÂĤ": 3524,
      "à¤ªà¤¶": 3525,
      "Ġgives": 3526,
      "Ġpurposes": 3527,
      "Ġtaking": 3528,
      "Ġearly": 3529,
      "Ġestablish": 3530,
      "Ġpoor": 3531,
      "Ġ;": 3532,
      "Ġà¤¸à¤«à¤²": 3533,
      "Ġmach": 3534,
      "à¤ħà¤µ": 3535,
      "Ġange": 3536,
      "Ġintegr": 3537,
      "Ġnorm": 3538,
      "Ġà¤¨à¤Ĺà¤°": 3539,
      "Ġindepend": 3540,
      "Ġacqu": 3541,
      "Ġà¤°à¤ķà¤®": 3542,
      "Ġregion": 3543,
      "à¤®à¤Ĺà¤°": 3544,
      "hether": 3545,
      "rary": 3546,
      "Ġsize": 3547,
      "Ġsac": 3548,
      "com": 3549,
      "atory": 3550,
      "ĠHigh": 3551,
      "Ġà¤Ńà¤¯": 3552,
      "Indeed": 3553,
      "Ġà¤¸à¤ĸ": 3554,
      "Ġconditions": 3555,
      "Ġviol": 3556,
      "aught": 3557,
      "Ġwoman": 3558,
      "rect": 3559,
      "iction": 3560,
      "inary": 3561,
      "ĠCont": 3562,
      "soever": 3563,
      "Ġà¤ıà¤²": 3564,
      "ixed": 3565,
      "à¤ĥ%": 3566,
      "Ġdepend": 3567,
      "à¤Ĩà¤¨": 3568,
      "anskrit": 3569,
      "ump": 3570,
      "Ġmaint": 3571,
      "Ġliterature": 3572,
      "Be": 3573,
      "Ġreach": 3574,
      "Ġ2000": 3575,
      "Ġdeveloped": 3576,
      "Ġà¤Īà¤¶": 3577,
      "Ġallowed": 3578,
      "à¤¡à¤¨": 3579,
      "Ġmember": 3580,
      "Ġincrease": 3581,
      "Ġfru": 3582,
      "Ġthousand": 3583,
      "Ġsun": 3584,
      "ift": 3585,
      "Ġmatters": 3586,
      "à¤¦à¤²": 3587,
      "Ġ28": 3588,
      "Ġassist": 3589,
      "sc": 3590,
      "à¤¨à¤ķà¤°": 3591,
      "Ġhost": 3592,
      "Ġgri": 3593,
      "aving": 3594,
      "à¤²à¤Ń": 3595,
      "Ġthus": 3596,
      "However": 3597,
      "vey": 3598,
      "Ġtree": 3599,
      "aste": 3600,
      "rown": 3601,
      "aya": 3602,
      "Ġleast": 3603,
      "Ġsource": 3604,
      "Ġremember": 3605,
      "Ġsound": 3606,
      "let": 3607,
      "Ġtask": 3608,
      "Â¤Â¨": 3609,
      "RO": 3610,
      "à¤¹à¤¦": 3611,
      "Ġeverything": 3612,
      "uses": 3613,
      "ificate": 3614,
      "Ġ21": 3615,
      "Ġcompan": 3616,
      "ĠGeneral": 3617,
      "abad": 3618,
      "Ġsays": 3619,
      "Ġnatural": 3620,
      "hara": 3621,
      "à¤ªà¤²": 3622,
      "essee": 3623,
      "Ġglobal": 3624,
      "à¤ľà¤¯": 3625,
      "ĠEurope": 3626,
      "Please": 3627,
      "Ġà¤¸à¤¦à¤¨": 3628,
      "ots": 3629,
      "âĢĺ": 3630,
      "Pr": 3631,
      "Ġlow": 3632,
      "rain": 3633,
      "ĠDirect": 3634,
      "ada": 3635,
      "ĠDepartment": 3636,
      "AS": 3637,
      "Ġfirm": 3638,
      "Ġtor": 3639,
      "à¤£à¤µà¤¤": 3640,
      "Acc": 3641,
      "City": 3642,
      "à¤¨à¤¤à¤®": 3643,
      "Ġmessages": 3644,
      "Ġmanagement": 3645,
      "Ġfig": 3646,
      ".)": 3647,
      "Ġconduct": 3648,
      "ava": 3649,
      "Ġpatient": 3650,
      "ilk": 3651,
      "Ġà¤ķà¤¦à¤®": 3652,
      "Ġà¤¬à¤ĸ": 3653,
      "Ġer": 3654,
      "itude": 3655,
      "Ġenjoy": 3656,
      "Ġà¤ıà¤ľ": 3657,
      "attle": 3658,
      "Ġpopulation": 3659,
      "Ġissued": 3660,
      "Ġwealth": 3661,
      "iddle": 3662,
      "Ġbenefit": 3663,
      "Ġfel": 3664,
      "ĠSy": 3665,
      "Ġserver": 3666,
      "sue": 3667,
      "Ġdestroy": 3668,
      "ĠMad": 3669,
      "Ġ27": 3670,
      "cies": 3671,
      "ĠKnow": 3672,
      "Ġpri": 3673,
      "der": 3674,
      "mir": 3675,
      "iles": 3676,
      "ler": 3677,
      "itable": 3678,
      "Ġfollowed": 3679,
      "Ġà¤µà¤¨": 3680,
      "Ġefforts": 3681,
      "à¤¶à¤¬": 3682,
      "ĠCal": 3683,
      "Ġcapacity": 3684,
      "Your": 3685,
      "Ġaware": 3686,
      "Ġcondition": 3687,
      "Ġà¤¸à¤ª": 3688,
      "Ġparent": 3689,
      "Ġant": 3690,
      "ĠSabha": 3691,
      "ening": 3692,
      "ĠChand": 3693,
      "à¤īà¤Ł": 3694,
      "à¤ľà¤®": 3695,
      "html": 3696,
      "Ġwish": 3697,
      "ental": 3698,
      "Ġjour": 3699,
      "Ġalone": 3700,
      "Ġtyp": 3701,
      "Ġexc": 3702,
      "empt": 3703,
      "à¤«à¤°": 3704,
      "ane": 3705,
      "Ġofficial": 3706,
      "Ġchall": 3707,
      "Ġoutside": 3708,
      "Ġaud": 3709,
      "Ġsearch": 3710,
      "Ġconsum": 3711,
      "ĠFire": 3712,
      "Ġrights": 3713,
      "Ġbirth": 3714,
      "rist": 3715,
      "Ġfast": 3716,
      "Ġindustrial": 3717,
      "Com": 3718,
      "!\"": 3719,
      "Ġduty": 3720,
      "Ġassessee": 3721,
      "Ġalmost": 3722,
      "Rem": 3723,
      "UR": 3724,
      "à¤µà¤µà¤°": 3725,
      "Ġstates": 3726,
      "Ġdemoc": 3727,
      "Ġdisease": 3728,
      "à¤¸à¤°à¤ķ": 3729,
      "etition": 3730,
      "gest": 3731,
      "Ġà¤ĸà¤¤à¤°": 3732,
      "Ġhalf": 3733,
      "Who": 3734,
      "Ġsqu": 3735,
      "oke": 3736,
      "Ġcases": 3737,
      "Ġrule": 3738,
      "--": 3739,
      "Ġ31": 3740,
      "à¤£à¤ªà¤¤": 3741,
      "Ġdisplay": 3742,
      "kind": 3743,
      "eople": 3744,
      "Ġà¤ĩà¤¬": 3745,
      "idden": 3746,
      "ows": 3747,
      "well": 3748,
      "Ġnone": 3749,
      "Ġfront": 3750,
      "Ġà¤ķà¤¥": 3751,
      "Ġneither": 3752,
      "Ġundert": 3753,
      "iii": 3754,
      "ĠSay": 3755,
      "Ġsoft": 3756,
      "tax": 3757,
      "estern": 3758,
      "Ġinstitution": 3759,
      "Ġred": 3760,
      "Ġà¤«à¤°à¤®": 3761,
      "30": 3762,
      "uge": 3763,
      "ols": 3764,
      "ĠMar": 3765,
      "Ġtraining": 3766,
      "ging": 3767,
      "Ġcover": 3768,
      "Ġ40": 3769,
      "aughter": 3770,
      "Ġstru": 3771,
      "''": 3772,
      "reg": 3773,
      "mukherjee": 3774,
      "pranab": 3775,
      "Ġdire": 3776,
      "pranabmukherjee": 3777,
      "vere": 3778,
      "Ġreject": 3779,
      "posed": 3780,
      "Ġpartners": 3781,
      "Ġearlier": 3782,
      "Ġtou": 3783,
      "ĠIm": 3784,
      "ĠINDIA": 3785,
      "Ġenough": 3786,
      "à¤Ľà¤¤": 3787,
      "usion": 3788,
      "Ġmass": 3789,
      "fo": 3790,
      "Ġwife": 3791,
      "Ġsan": 3792,
      "Ġà¤¬à¤§": 3793,
      "ĠPol": 3794,
      "ĠMuhammad": 3795,
      "face": 3796,
      "Ġpersonal": 3797,
      "Ġtrib": 3798,
      "Ġpow": 3799,
      "Ġli": 3800,
      "à¤®à¤ªà¤°": 3801,
      "range": 3802,
      "God": 3803,
      "ecause": 3804,
      "Ġachieve": 3805,
      "Ġlost": 3806,
      "à¤¤à¤°à¤°": 3807,
      "orpor": 3808,
      "Ġstay": 3809,
      "Im": 3810,
      "Ġwide": 3811,
      "],": 3812,
      "cle": 3813,
      "rew": 3814,
      "adem": 3815,
      "Ġtry": 3816,
      "Ar": 3817,
      "....": 3818,
      "Ġsubs": 3819,
      "chnology": 3820,
      "Ġà¤ķà¤¡": 3821,
      "emed": 3822,
      "Ġwrite": 3823,
      "Ġcreation": 3824,
      "ique": 3825,
      "Am": 3826,
      "Ġevent": 3827,
      "Ġdistrict": 3828,
      "ĠSat": 3829,
      "tings": 3830,
      "Ġdoubt": 3831,
      "CT": 3832,
      "Ġkept": 3833,
      "ĠMost": 3834,
      "Ġaim": 3835,
      "ptions": 3836,
      "Ġsaw": 3837,
      "Ġsaying": 3838,
      "à¤¶à¤µ": 3839,
      "Ġsimilar": 3840,
      "Ġà¤ªà¤°à¤¨": 3841,
      "ĠDr": 3842,
      "Ġinflu": 3843,
      "do": 3844,
      "Ġdead": 3845,
      "Ġansw": 3846,
      "believers": 3847,
      "à¤ķà¤Ń": 3848,
      "rick": 3849,
      "Ġneg": 3850,
      "ufact": 3851,
      "Ġassessment": 3852,
      "Ġtar": 3853,
      "Ġsugg": 3854,
      "isf": 3855,
      "Ġplaces": 3856,
      "Ġexperience": 3857,
      "va": 3858,
      "yn": 3859,
      "Ġsuggest": 3860,
      "Ġlakh": 3861,
      "Ġsea": 3862,
      "ulated": 3863,
      "yle": 3864,
      "Ġtown": 3865,
      "iveness": 3866,
      "Ġprogramm": 3867,
      "Ġ(%": 3868,
      "Ġremain": 3869,
      "II": 3870,
      "Ġgard": 3871,
      "à¤Ĺà¤¦à¤°": 3872,
      "Â²": 3873,
      "pir": 3874,
      "Ġà¤ķà¤ķ": 3875,
      "ĠSche": 3876,
      "Select": 3877,
      "Ġimmedi": 3878,
      "uary": 3879,
      "Ġscience": 3880,
      "undred": 3881,
      "Ġthird": 3882,
      "rror": 3883,
      "Ġprogramme": 3884,
      "Ġà¤ļà¤²à¤¨": 3885,
      "Ġlat": 3886,
      "ĠPh": 3887,
      "Ġpros": 3888,
      "Ġcredit": 3889,
      "Ġjudge": 3890,
      "Ġwriting": 3891,
      "che": 3892,
      "ĠLe": 3893,
      "Ġinclude": 3894,
      "Ġdecided": 3895,
      "Ġcharge": 3896,
      "Ġattack": 3897,
      "Ġbuilt": 3898,
      "oly": 3899,
      "wise": 3900,
      "ĠOn": 3901,
      "Ġaffect": 3902,
      "à¤¸à¤®à¤¯": 3903,
      "ĠFin": 3904,
      "Ġfem": 3905,
      "Ġprovision": 3906,
      "Ġà¤¬à¤¨à¤¨": 3907,
      "Ġ\"%": 3908,
      "Ġeat": 3909,
      "Ġlog": 3910,
      "à¤Ĩà¤¯": 3911,
      "à¤ľà¤¨à¤ķ": 3912,
      "Ġopens": 3913,
      "Ġdrink": 3914,
      "Ġstructure": 3915,
      "Ġactually": 3916,
      "lete": 3917,
      "haps": 3918,
      "à¤¤à¤ļ": 3919,
      "Ġnews": 3920,
      "Pl": 3921,
      "Ġà¤īà¤ªà¤°": 3922,
      "ĠMoses": 3923,
      "à¥¬": 3924,
      "Ġbless": 3925,
      "gment": 3926,
      "light": 3927,
      "ators": 3928,
      "Whether": 3929,
      "anda": 3930,
      "Ġacross": 3931,
      "Ġriver": 3932,
      "Ġresources": 3933,
      "Ġspace": 3934,
      "pril": 3935,
      "à¤ķà¤²à¤¨": 3936,
      "Ad": 3937,
      "Ġseven": 3938,
      "Ġjob": 3939,
      "Ġancient": 3940,
      "Cannot": 3941,
      "Ġwall": 3942,
      "alse": 3943,
      "pecially": 3944,
      "à¥ĭ.": 3945,
      "Not": 3946,
      "agar": 3947,
      "Ġà¤°à¤µ": 3948,
      "rences": 3949,
      "Ġraised": 3950,
      "uration": 3951,
      "ares": 3952,
      "erved": 3953,
      "Ġuser": 3954,
      "Ġpopular": 3955,
      "Ġà¤ªà¤¥": 3956,
      "Ġcontinue": 3957,
      "Ġhope": 3958,
      "Ġintrodu": 3959,
      "à¤ªà¤°à¤¨": 3960,
      "Ġcut": 3961,
      "ales": 3962,
      "à¤¦à¤¶": 3963,
      "Ġmode": 3964,
      "PRESIDENT": 3965,
      "Ġforms": 3966,
      "à¥ĩà¥¤\"": 3967,
      "ĠPart": 3968,
      "Let": 3969,
      "à¥©": 3970,
      "Even": 3971,
      "Ġreceive": 3972,
      "Ġrad": 3973,
      "Ġ80": 3974,
      "Ġmusic": 3975,
      "à¤¯à¤¤à¤¨": 3976,
      "à¥§": 3977,
      "à¤¿.": 3978,
      "Ġvideo": 3979,
      "Ġsignific": 3980,
      "Ġteacher": 3981,
      "Ġtour": 3982,
      "Ġà¤ļà¤¢": 3983,
      "ĠUS": 3984,
      "à¤µà¤Ł": 3985,
      "Ġà¤¬à¤°à¤¸": 3986,
      "akistan": 3987,
      "Ġpayment": 3988,
      "duc": 3989,
      "where": 3990,
      "ĠTO": 3991,
      "Ġdecision": 3992,
      "Ġrequire": 3993,
      "New": 3994,
      "rote": 3995,
      "Ġlear": 3996,
      "raw": 3997,
      "rica": 3998,
      "App": 3999,
      "eh": 4000,
      "Ġrequest": 4001,
      "IL": 4002,
      "chan": 4003,
      "Ġexec": 4004,
      "Ġvari": 4005,
      "Ġstrength": 4006,
      "Ġproducts": 4007,
      "Ġir": 4008,
      "ĠProphet": 4009,
      "Thus": 4010,
      "Ġlaun": 4011,
      "Ġmankind": 4012,
      "sy": 4013,
      "ĠCo": 4014,
      "rastructure": 4015,
      "Ġà¤¦à¤¶à¤ķ": 4016,
      "oud": 4017,
      "ĠTo": 4018,
      "ĠThen": 4019,
      "Dis": 4020,
      "à¥ª": 4021,
      "Ġà¤¸à¤¡": 4022,
      "igation": 4023,
      "Ġinnov": 4024,
      "Ġangels": 4025,
      "ED": 4026,
      "Ġsust": 4027,
      "Ġbelow": 4028,
      "fort": 4029,
      "ables": 4030,
      "ĠInformation": 4031,
      "vert": 4032,
      "à¤¿à¥¤": 4033,
      "Ġprivate": 4034,
      "Ġ2014": 4035,
      "à¤Ļ": 4036,
      "Ġhundred": 4037,
      "Ġpublished": 4038,
      "ifest": 4039,
      "Ġprice": 4040,
      "Ġcarried": 4041,
      "à¤ļà¤¯à¤¨": 4042,
      "ading": 4043,
      "press": 4044,
      "Ġissue": 4045,
      "osop": 4046,
      "à¥Ĥ-": 4047,
      "Ġdisbelieve": 4048,
      "ĠBrah": 4049,
      "nds": 4050,
      "ĠMukherjee": 4051,
      "ĠCl": 4052,
      "à¥ĭà¤Ĥà¥¤": 4053,
      "2018": 4054,
      "inion": 4055,
      "Ġstop": 4056,
      "Ġrules": 4057,
      "Ġinstall": 4058,
      "oon": 4059,
      "Ġdeli": 4060,
      "ĠJan": 4061,
      "ees": 4062,
      "Ġboy": 4063,
      "irst": 4064,
      "Ġeight": 4065,
      "Ġregist": 4066,
      "Ġgroups": 4067,
      "17": 4068,
      "à¤°à¤µà¤°": 4069,
      "à¤¯à¤§": 4070,
      "mark": 4071,
      "âĢľâĢĿ": 4072,
      "Ġpal": 4073,
      "ivity": 4074,
      "Ġdeny": 4075,
      "à¤¼)": 4076,
      "ĠBudd": 4077,
      "Ġdraw": 4078,
      "ĠInstitute": 4079,
      "ney": 4080,
      "Ġbal": 4081,
      "estic": 4082,
      "band": 4083,
      "jab": 4084,
      "Ġdocument": 4085,
      "ĠBhar": 4086,
      "Ġapply": 4087,
      "Ġsituation": 4088,
      "Ġenem": 4089,
      "ĠIndeed": 4090,
      "ban": 4091,
      "ĠMerc": 4092,
      "RI": 4093,
      "Ġprojects": 4094,
      "ades": 4095,
      "ĠPublic": 4096,
      "à¤°à¤£à¤¬": 4097,
      "Ġconne": 4098,
      "Ġoperation": 4099,
      "but": 4100,
      "Ġwrote": 4101,
      "Ġreform": 4102,
      "Âª": 4103,
      "que": 4104,
      "Ġmanufact": 4105,
      "à¤°à¤Ķ": 4106,
      "fficient": 4107,
      "Prov": 4108,
      "eral": 4109,
      "Ġlives": 4110,
      "Ġfarmers": 4111,
      "Ġprovides": 4112,
      "inn": 4113,
      "Ġ1961": 4114,
      "gar": 4115,
      "Ġeconomy": 4116,
      "ĠMahar": 4117,
      "gn": 4118,
      "Ġà¤īà¤¤à¤¨": 4119,
      "à¤ķà¤¤à¤°": 4120,
      "ĠSanskrit": 4121,
      "Ġstudy": 4122,
      "Ġhear": 4123,
      "à¤¨à¤µà¤°": 4124,
      "Ġwait": 4125,
      "Ġpra": 4126,
      "ager": 4127,
      "ĠKh": 4128,
      "ĠHere": 4129,
      "Ġà¤Ńà¤Ĺà¤µ": 4130,
      "External": 4131,
      "Ġprepared": 4132,
      "Ġrevel": 4133,
      "ports": 4134,
      "Category": 4135,
      "Ġign": 4136,
      "à¤°à¤Ķà¤¨": 4137,
      "à¤Ĩà¤§": 4138,
      "Ġinvestment": 4139,
      "ĠMerciful": 4140,
      "aka": 4141,
      ".,": 4142,
      "ilosop": 4143,
      "umn": 4144,
      "ĠArab": 4145,
      "Ġmultip": 4146,
      "rection": 4147,
      "adu": 4148,
      "Ġà¤ķà¤®à¤ľ": 4149,
      "Ġimprove": 4150,
      "Ġfailed": 4151,
      "endar": 4152,
      "Ġapproach": 4153,
      "mon": 4154,
      "Ġissues": 4155,
      "ĠWest": 4156,
      "Ġtorment": 4157,
      "Ġpage": 4158,
      "icro": 4159,
      "enty": 4160,
      "Ġà¤Ĩà¤¬": 4161,
      "Ġdefe": 4162,
      "ĠBi": 4163,
      "Ġà¤ĺà¤¡": 4164,
      "Ġmeaning": 4165,
      "Ġà¤ļà¤ķ": 4166,
      "ici": 4167,
      "à¤ĺà¤¨": 4168,
      "jar": 4169,
      "ads": 4170,
      "Ġste": 4171,
      "Ġways": 4172,
      "Ġled": 4173,
      "Ġproduce": 4174,
      "Ġcast": 4175,
      "Ġfulf": 4176,
      "ext": 4177,
      "à¤¿à¤ĥ": 4178,
      "à¥®": 4179,
      "gram": 4180,
      "à¤®à¤§": 4181,
      "Ġincreased": 4182,
      "rav": 4183,
      "ras": 4184,
      "Ġid": 4185,
      "Ġproceed": 4186,
      "umbai": 4187,
      "ĠMr": 4188,
      "Ġguard": 4189,
      "ourage": 4190,
      "owed": 4191,
      "Ġfriends": 4192,
      "à¤¸à¤ļ": 4193,
      "Ġà¤¡à¤°à¤¤": 4194,
      "Ġrural": 4195,
      "Ab": 4196,
      "sect": 4197,
      "Ġdesire": 4198,
      "Ġ2015": 4199,
      "Ġbegan": 4200,
      "mbly": 4201,
      "-#-#": 4202,
      "Ġessential": 4203,
      "vant": 4204,
      "ĠIN": 4205,
      "oose": 4206,
      "Ġà¤ªà¤¨": 4207,
      "gy": 4208,
      "stray": 4209,
      "Ġguide": 4210,
      "ĠThere": 4211,
      "à¤¦à¤°à¤¤": 4212,
      "à¥Ń": 4213,
      "Ġbound": 4214,
      "60": 4215,
      "Ġevidence": 4216,
      "Ġstatus": 4217,
      "Ġà¤ļà¤°à¤£": 4218,
      "ĠEast": 4219,
      "AY": 4220,
      "ley": 4221,
      "Ġindic": 4222,
      "iture": 4223,
      "ĠAk": 4224,
      "inter": 4225,
      "à¥Ģà¤Ĥ)": 4226,
      "ĠBoard": 4227,
      "Ġpercent": 4228,
      "ĠJud": 4229,
      "Ġminister": 4230,
      "Ġastray": 4231,
      "ĠApril": 4232,
      "asure": 4233,
      "ites": 4234,
      "Ġcrore": 4235,
      "Ġregular": 4236,
      "Ġweak": 4237,
      "Ġfoc": 4238,
      "Ġcoop": 4239,
      "Ġquot": 4240,
      "Ġcoming": 4241,
      "Ġsatisf": 4242,
      "Ġrelating": 4243,
      "Ġà¤ļà¤¨": 4244,
      "Ġopportunity": 4245,
      "Ġguided": 4246,
      "Ġ60": 4247,
      "Such": 4248,
      "kar": 4249,
      "ume": 4250,
      "Ġteach": 4251,
      "Ġbecomes": 4252,
      "Ġbehalf": 4253,
      "à¤ħà¤²à¤Ĺ": 4254,
      "Ġensure": 4255,
      "Ġpoll": 4256,
      "Ġespecially": 4257,
      "Ġcrop": 4258,
      "ĠUnited": 4259,
      "Ġaccepted": 4260,
      "lear": 4261,
      "Ġda": 4262,
      "Ġoriginal": 4263,
      "ĠThat": 4264,
      "Ġfeed": 4265,
      "Ġbill": 4266,
      "Ġbear": 4267,
      "ĠKing": 4268,
      "Ġsecret": 4269,
      "ĠWorld": 4270,
      "Ġexchange": 4271,
      "Ġà¤Ĩà¤¹": 4272,
      "aved": 4273,
      "Ġà¤ıà¤¶": 4274,
      "urance": 4275,
      "à¤ĺà¤Łà¤¨": 4276,
      "à¤®à¤µ": 4277,
      "Ġà¤ħà¤¸à¤«à¤²": 4278,
      "Ġcultural": 4279,
      "has": 4280,
      "lebr": 4281,
      "RA": 4282,
      "Ġstage": 4283,
      "body": 4284,
      "\",": 4285,
      "Ġhappy": 4286,
      "Ġ2007": 4287,
      "Ġgiving": 4288,
      "Ġinstrument": 4289,
      "rans": 4290,
      "Sub": 4291,
      "Ġlower": 4292,
      "Ġrain": 4293,
      "ĠDiv": 4294,
      "Ġstrengthen": 4295,
      "à¤ķà¤¤à¤®": 4296,
      "rishna": 4297,
      "Ġreached": 4298,
      "ott": 4299,
      "Ġdam": 4300,
      "Ġdetails": 4301,
      "ĠSw": 4302,
      "itle": 4303,
      "Ġsubst": 4304,
      "Ġconcerned": 4305,
      "Ġà¤«à¤¸à¤²": 4306,
      "Ġaccord": 4307,
      "Ġidea": 4308,
      "ground": 4309,
      "ĠChief": 4310,
      "à¤µà¤¹à¤¨": 4311,
      "ĠSp": 4312,
      "ST": 4313,
      "Ġà¤¹à¤¤": 4314,
      "Ġcaused": 4315,
      "During": 4316,
      "acc": 4317,
      "Ġà¤ľà¤¨à¤¸": 4318,
      "Ġvalues": 4319,
      "Ġpromise": 4320,
      "Ġnames": 4321,
      "Ġà¤ķà¤¶": 4322,
      "Ġconscious": 4323,
      "Ġroom": 4324,
      "Ġà¤ĩà¤®": 4325,
      "Ġimportance": 4326,
      "à¤°à¤¥": 4327,
      "à¤®à¤ľ": 4328,
      "ulate": 4329,
      "Ġdepos": 4330,
      "Ġrich": 4331,
      "Ġvict": 4332,
      "Ġà¤®à¤¹à¤¸": 4333,
      "à¤Ĩà¤ķ": 4334,
      "à¤Ĩà¤ĸ": 4335,
      "anga": 4336,
      "Ġoccur": 4337,
      "Ġeasy": 4338,
      "Ġà¥§à¥¯à¥": 4339,
      "head": 4340,
      "Ġobt": 4341,
      "Ġà¤¤à¤Ł": 4342,
      "Ġtele": 4343,
      "Ġcitizens": 4344,
      "vest": 4345,
      "Ġjustice": 4346,
      "ĠOne": 4347,
      "Ġconv": 4348,
      "Ġpowers": 4349,
      "Ġdisbelievers": 4350,
      "ober": 4351,
      "Ġlanguages": 4352,
      "ĠAm": 4353,
      "Ġspecific": 4354,
      "à¤Ĥà¥¤": 4355,
      "Ġphysical": 4356,
      "Cl": 4357,
      "à¤ªà¤ļ": 4358,
      "Ġà¤²à¤ĺ": 4359,
      "Ġ2006": 4360,
      "Ġattend": 4361,
      "Des": 4362,
      "ĠYour": 4363,
      "ĠAcc": 4364,
      "char": 4365,
      "Ġunivers": 4366,
      "Ġdark": 4367,
      "ĠâĢľâĢĿ": 4368,
      "Ġaver": 4369,
      "Ġrather": 4370,
      "à¤¤à¤ª": 4371,
      "à¤Łà¤°à¤¨": 4372,
      "omet": 4373,
      "à¤°à¤«": 4374,
      "à¤¹à¤¬": 4375,
      "Ġ$": 4376,
      "Ġà¤īà¤ªà¤Ń": 4377,
      "Ġorigin": 4378,
      "à¤¯à¤£": 4379,
      "Ġà¤ħà¤¶": 4380,
      "Ġfair": 4381,
      "set": 4382,
      "CC": 4383,
      "08": 4384,
      "mes": 4385,
      "Ġtakes": 4386,
      "hib": 4387,
      "hest": 4388,
      "Ġsong": 4389,
      "ĠSu": 4390,
      "la": 4391,
      "ĠPakistan": 4392,
      "Ġbesides": 4393,
      "Ġcentral": 4394,
      "Ġinstead": 4395,
      "Ġprayer": 4396,
      "de": 4397,
      "à¤ªà¤®": 4398,
      "Ġà¤Łà¤¨": 4399,
      "Ġà¤Ŀà¤Ĺà¤¡": 4400,
      "Ġwhoever": 4401,
      "à¤¹à¤°à¤¬": 4402,
      "Ġà¤īà¤°": 4403,
      "Ġdi": 4404,
      "ĠPranab": 4405,
      "Ġsens": 4406,
      "Ġà¤ªà¤°à¤¸": 4407,
      "Ġbeginning": 4408,
      "ÂªÃł": 4409,
      "Ġappear": 4410,
      "nding": 4411,
      "Ġfacilities": 4412,
      "iting": 4413,
      "ĠSouth": 4414,
      "ĠPun": 4415,
      "Ġfalse": 4416,
      "ami": 4417,
      "though": 4418,
      "Ġletter": 4419,
      "Ġforest": 4420,
      "à¤Ĺà¤ľ": 4421,
      "Ġcomb": 4422,
      "Ġproviding": 4423,
      "While": 4424,
      "Spe": 4425,
      "Ġresponsible": 4426,
      "anch": 4427,
      "Ġà¤ħà¤®à¤°": 4428,
      "Ġshown": 4429,
      "Ġ35": 4430,
      "Ġarticle": 4431,
      "Ġà¤ĩà¤¬à¤°": 4432,
      "amil": 4433,
      "'.": 4434,
      "oe": 4435,
      "Ġmere": 4436,
      "gen": 4437,
      "Ġ29": 4438,
      "ĠBe": 4439,
      "rep": 4440,
      "From": 4441,
      "Ġprevent": 4442,
      "irm": 4443,
      "Ġprim": 4444,
      "rug": 4445,
      "Error": 4446,
      "Ġbran": 4447,
      "Ġ2013": 4448,
      "ĠCO": 4449,
      "fl": 4450,
      "Ġunbelievers": 4451,
      "bl": 4452,
      "abled": 4453,
      "Ġstra": 4454,
      "encies": 4455,
      "Ġforb": 4456,
      "Ġsimple": 4457,
      "anation": 4458,
      "Ġstone": 4459,
      "Ġ2005": 4460,
      "je": 4461,
      "Ġcamp": 4462,
      "Ġquite": 4463,
      "racy": 4464,
      "olar": 4465,
      "Ġwid": 4466,
      "Ġà¤®à¤¤à¤²à¤¬": 4467,
      "icles": 4468,
      "ĠName": 4469,
      "ouble": 4470,
      "Ġremind": 4471,
      "Ġbey": 4472,
      "à¤ĩà¤®": 4473,
      "Ġplaced": 4474,
      "Ġmeasure": 4475,
      "Ġmorning": 4476,
      "Ġcopy": 4477,
      "rim": 4478,
      "abor": 4479,
      "Ġelse": 4480,
      "Ġfail": 4481,
      "urrection": 4482,
      "ocation": 4483,
      "Ġà¤®à¤²": 4484,
      "Ġfort": 4485,
      "ervation": 4486,
      "Ġpossess": 4487,
      "Ġbeyond": 4488,
      "à¤¯à¤¥": 4489,
      "ashmir": 4490,
      "Ġwanted": 4491,
      "Ġmut": 4492,
      "from": 4493,
      "Ġreturned": 4494,
      "25": 4495,
      "Ġmanifest": 4496,
      "Ġcolle": 4497,
      "Ġrivers": 4498,
      "Ġà¤¤à¤¯": 4499,
      "à¤¬à¤°à¤¦": 4500,
      "uru": 4501,
      "Ġoil": 4502,
      "Ġborn": 4503,
      "Ġteam": 4504,
      "Ġdie": 4505,
      "Ġunless": 4506,
      "iva": 4507,
      "ĠLo": 4508,
      "Ġgetting": 4509,
      "upreme": 4510,
      "ATION": 4511,
      "ĠGovernor": 4512,
      "Ġheard": 4513,
      "Ġstrugg": 4514,
      "ĠMarch": 4515,
      "resh": 4516,
      "Ġfamous": 4517,
      "Ġà¤¤à¤¨": 4518,
      "iff": 4519,
      "Ġ2016": 4520,
      "Ġcolor": 4521,
      "Ġbad": 4522,
      "à¤¦à¤¸": 4523,
      "à¤µà¤¯à¤¨": 4524,
      "ĠChrist": 4525,
      "Ġstyle": 4526,
      "uck": 4527,
      "ĠLeg": 4528,
      "Ġà¤ĩà¤°": 4529,
      "Ġprogrammes": 4530,
      "à¤ĸà¤ķà¤°": 4531,
      "ĠPal": 4532,
      "23": 4533,
      "Ġdeg": 4534,
      "ĠâĢİ": 4535,
      "Ġhar": 4536,
      "Ġlies": 4537,
      "Ġappoint": 4538,
      "Ġanswer": 4539,
      "known": 4540,
      "Ġphilosop": 4541,
      "cribe": 4542,
      "Ġexpend": 4543,
      "Ġbelongs": 4544,
      "Ġweek": 4545,
      "Ġà¤¸à¤¹à¤®à¤¤": 4546,
      "Ġprescribed": 4547,
      "Ġfamil": 4548,
      "Ġbi": 4549,
      "à¥Īà¤Ĥ-": 4550,
      "oday": 4551,
      "Ġmom": 4552,
      "ĠTechnology": 4553,
      "Ġinfrastructure": 4554,
      "à¥ĭ?": 4555,
      "Ġprop": 4556,
      "Ġemb": 4557,
      "à¤·à¤ľ": 4558,
      "Ġà¤¸à¤®à¤Ŀà¤¨": 4559,
      "ule": 4560,
      "ao": 4561,
      "Ġhistor": 4562,
      "Ġprior": 4563,
      "uction": 4564,
      "Ġdig": 4565,
      "Ġbit": 4566,
      "Ġà¤ķà¤°à¤µ": 4567,
      "rate": 4568,
      "ĠSecret": 4569,
      "oll": 4570,
      "ĠOff": 4571,
      "Us": 4572,
      "than": 4573,
      "Ġround": 4574,
      "Â¤Â®": 4575,
      "anced": 4576,
      "Ġthereof": 4577,
      "lict": 4578,
      "Ġgoes": 4579,
      "ĠâĢ¦": 4580,
      "ommend": 4581,
      "Ġclean": 4582,
      "à¤¡à¤µ": 4583,
      "Ġà¤¬à¤¦à¤²à¤¨": 4584,
      "Ġadded": 4585,
      "à¥ĭà¤Ĥ/": 4586,
      "Ġbeaut": 4587,
      "ĠCommissioner": 4588,
      "ropri": 4589,
      "riage": 4590,
      "Ġagreement": 4591,
      "Ġgir": 4592,
      "Ġà¤īà¤ªà¤ļ": 4593,
      "ĠOfficer": 4594,
      "Ġbasic": 4595,
      "'t": 4596,
      "ids": 4597,
      "Ġtreatment": 4598,
      "à¥Ģ/": 4599,
      "Ġbow": 4600,
      "Ġinsect": 4601,
      "Ġeffective": 4602,
      "right": 4603,
      "Ġgone": 4604,
      "ĠHereafter": 4605,
      "Ġcontribut": 4606,
      "Ġparents": 4607,
      "Ġdevice": 4608,
      "Cont": 4609,
      "aur": 4610,
      "ducation": 4611,
      "MS": 4612,
      "osition": 4613,
      "inate": 4614,
      "aly": 4615,
      "Ġcelebr": 4616,
      "Ġunderstanding": 4617,
      "ressed": 4618,
      "ĠEv": 4619,
      "add": 4620,
      "elf": 4621,
      "Ġformed": 4622,
      "Ġà¤²à¤®": 4623,
      "Ġspeech": 4624,
      "ĠIncome": 4625,
      "According": 4626,
      "Ġbird": 4627,
      "Ġgenerally": 4628,
      "Ġspiritual": 4629,
      "Ġà¤ĩà¤¨à¤®": 4630,
      "Ġpotential": 4631,
      "ĠApp": 4632,
      "Ġgovern": 4633,
      "ĠQuran": 4634,
      "Ġfelt": 4635,
      "Ġplants": 4636,
      "Ġcoll": 4637,
      "NA": 4638,
      "atures": 4639,
      "aded": 4640,
      "Ġinform": 4641,
      "Ġyourselves": 4642,
      "Ġexerc": 4643,
      "Ġactivity": 4644,
      "Ġtried": 4645,
      "Ġaccounts": 4646,
      "Ġparties": 4647,
      "à¤Ľà¤µ": 4648,
      "Ġnotice": 4649,
      "Ġconcer": 4650,
      "Ġbreak": 4651,
      "à¤¶à¤¯": 4652,
      "Ġà¤ķà¤ªà¤¡": 4653,
      "Ġlegal": 4654,
      "Ġusually": 4655,
      "à¤¸à¤°à¤£": 4656,
      "Ġproced": 4657,
      "Ġà¤¸à¤°à¤²": 4658,
      "Ġ2008": 4659,
      "det": 4660,
      "Res": 4661,
      "Ġcoun": 4662,
      "Ġà¤¹à¤¦": 4663,
      "Ġanimals": 4664,
      "24": 4665,
      "Indian": 4666,
      "Ġnar": 4667,
      "Ġpoin": 4668,
      "ĠService": 4669,
      "Open": 4670,
      "Ġris": 4671,
      "Ġwarm": 4672,
      "Ġdirection": 4673,
      "Ġà¤ħà¤ĸ": 4674,
      "Ġcompl": 4675,
      "Ġcompet": 4676,
      "obile": 4677,
      "ertain": 4678,
      "Ġà¤¨à¤¬": 4679,
      "Ġideas": 4680,
      "à¤¨à¤Ł": 4681,
      "Ġsky": 4682,
      "equ": 4683,
      "à¤¦à¤¬": 4684,
      "ctors": 4685,
      "à¤Īà¤²": 4686,
      "Ġsetting": 4687,
      "EE": 4688,
      "adi": 4689,
      "Ġoffer": 4690,
      "Ġà¤¸à¤®à¤¨": 4691,
      "à¤ıà¤µ": 4692,
      "Ġproduced": 4693,
      "ĠVed": 4694,
      "Ġfilm": 4695,
      "Ġconnection": 4696,
      "erson": 4697,
      "uman": 4698,
      "Ġexisting": 4699,
      "Ġforces": 4700,
      "ils": 4701,
      "Ġburn": 4702,
      "uls": 4703,
      "Ġemp": 4704,
      "Why": 4705,
      "à¤¹à¤Ł": 4706,
      "Ġmand": 4707,
      "Ġchast": 4708,
      "Ġpresented": 4709,
      "à¤ĸà¤¦": 4710,
      "ips": 4711,
      "lt": 4712,
      "à¤°à¤·": 4713,
      "Ġheaven": 4714,
      "standing": 4715,
      "ctober": 4716,
      "Ġvision": 4717,
      "india": 4718,
      "Ġge": 4719,
      "Ġindustries": 4720,
      "à¤ľà¤ª": 4721,
      "âĢ¦": 4722,
      "ancy": 4723,
      "à¤īà¤ļ": 4724,
      "Ġ2001": 4725,
      "ĠCentre": 4726,
      "Ġpassword": 4727,
      "à¤¬à¤ļ": 4728,
      "Ġknew": 4729,
      "Ġexistence": 4730,
      "Ġhouses": 4731,
      "Ġder": 4732,
      "Ġep": 4733,
      "Ġà¤¤à¤¸": 4734,
      "Ġsex": 4735,
      "ole": 4736,
      "Have": 4737,
      "nal": 4738,
      "Ġcontinued": 4739,
      "ĠRepublic": 4740,
      "cember": 4741,
      "antly": 4742,
      "ĠPlan": 4743,
      "ogle": 4744,
      "Ġyouth": 4745,
      "ĠIndust": 4746,
      "ttar": 4747,
      "Ġkill": 4748,
      "Ġmot": 4749,
      "ING": 4750,
      "Ġmentioned": 4751,
      "sec": 4752,
      "Â¥ÂĢ": 4753,
      "Ġpict": 4754,
      "Ġdisp": 4755,
      "IR": 4756,
      "Pre": 4757,
      "Ġà¤īà¤Ĺ": 4758,
      "Ġago": 4759,
      "Ġscale": 4760,
      "Ġfest": 4761,
      "à¤ĩà¤ª": 4762,
      "Ġfavour": 4763,
      "Are": 4764,
      "Every": 4765,
      "Many": 4766,
      "Rec": 4767,
      "Ġà¤¹à¤°à¤Ĺ": 4768,
      "ĠMon": 4769,
      "Ġserious": 4770,
      "à¥Ĥà¤ģ,": 4771,
      "ĠHar": 4772,
      ");": 4773,
      "CH": 4774,
      "like": 4775,
      "ternet": 4776,
      "Ġlearning": 4777,
      "oting": 4778,
      "cast": 4779,
      "Ġà¤¬à¤Ĺ": 4780,
      "ingu": 4781,
      "Ġservants": 4782,
      "EL": 4783,
      "road": 4784,
      "iter": 4785,
      "Ġà¤Ĩà¤ļ": 4786,
      "Ġbase": 4787,
      "ĠSupreme": 4788,
      "Ġloan": 4789,
      "Ġà¤Ĩà¤ªà¤¨": 4790,
      "Ġgeneration": 4791,
      "Ġcollect": 4792,
      "Ġlegisl": 4793,
      "à¤¯à¤Łà¤¨": 4794,
      "Ġaward": 4795,
      "Ġaddition": 4796,
      "Ġfif": 4797,
      "Ġpolice": 4798,
      "Ġcontent": 4799,
      "à¤¡à¤®": 4800,
      "Ġargu": 4801,
      "Ġplayed": 4802,
      "Ġparticularly": 4803,
      "à¥ľ": 4804,
      "Ġaspect": 4805,
      "ĠBl": 4806,
      "Ġcontract": 4807,
      "Ġsymb": 4808,
      "Ġengine": 4809,
      "ĠKashmir": 4810,
      "à¤¶à¤¨à¤²": 4811,
      "ze": 4812,
      "ĠMoh": 4813,
      "ipur": 4814,
      "etic": 4815,
      "ules": 4816,
      "porary": 4817,
      "Ġrunning": 4818,
      "Ġpractice": 4819,
      "oved": 4820,
      "Ġà¤¸à¤°à¤ķà¤¶": 4821,
      "Ġtypes": 4822,
      "à¤ħà¤«": 4823,
      "Ġunit": 4824,
      "omen": 4825,
      "text": 4826,
      "Ġcommer": 4827,
      "Ġdefault": 4828,
      "Ġà¤ľà¤¡": 4829,
      "Ġà¤Ńà¤ķ": 4830,
      "à¤¾à¥¤\"": 4831,
      "Ġhor": 4832,
      "Ġlie": 4833,
      "Ġpoetry": 4834,
      "cutta": 4835,
      "Ġsold": 4836,
      "Ġhus": 4837,
      "Ġà¤ĩà¤ľà¤°": 4838,
      "Ġund": 4839,
      "ĠMal": 4840,
      "ength": 4841,
      "à¥ĩ;": 4842,
      "Ġsystems": 4843,
      "',": 4844,
      "Americ": 4845,
      "à¤ĸà¤Ń": 4846,
      "urt": 4847,
      "ulations": 4848,
      "Ġverses": 4849,
      "Ġà¤°à¤ľ": 4850,
      "Ġconcept": 4851,
      "Ġunjust": 4852,
      "raham": 4853,
      "Ġversion": 4854,
      "ĠAdd": 4855,
      "Ġvirt": 4856,
      "Ġfolk": 4857,
      "Ġpie": 4858,
      "Ġexcell": 4859,
      "fect": 4860,
      "oured": 4861,
      "vis": 4862,
      "ĠWhen": 4863,
      "Ġfixed": 4864,
      "icial": 4865,
      "ML": 4866,
      "Â¤Â¤": 4867,
      "Ġresponsibility": 4868,
      "199": 4869,
      "ĠGujar": 4870,
      "22": 4871,
      "à¤ĩà¤ľ": 4872,
      "Ġnovel": 4873,
      "haraoh": 4874,
      "Ġmilit": 4875,
      "Ġà¤Ĺà¤£à¤°": 4876,
      "Ġstatement": 4877,
      "anges": 4878,
      "under": 4879,
      "Ġsafe": 4880,
      "cer": 4881,
      "oor": 4882,
      "ini": 4883,
      "Ġdream": 4884,
      "Ġagricultural": 4885,
      "Ġworkers": 4886,
      "ayan": 4887,
      "ĠTrib": 4888,
      "Ġfeet": 4889,
      "Ġfemale": 4890,
      "ovember": 4891,
      "Ġrecommend": 4892,
      "aksh": 4893,
      "Ġimag": 4894,
      "Ġobey": 4895,
      "Ġà¤ķà¤¦": 4896,
      "rows": 4897,
      "à¤²à¤ļ": 4898,
      "ĠMay": 4899,
      "rant": 4900,
      "Ġemployment": 4901,
      "Ġimmediately": 4902,
      "Ġà¤¸à¤°à¤¦": 4903,
      "Ġà¤°à¤¦": 4904,
      "ĠHell": 4905,
      "à¤µà¤¦": 4906,
      "ĠSA": 4907,
      "ching": 4908,
      "ĠCom": 4909,
      "avi": 4910,
      "Ġperhaps": 4911,
      "Ġincreasing": 4912,
      "vious": 4913,
      "Ġbra": 4914,
      "Ġcompanies": 4915,
      "itect": 4916,
      "Ġunits": 4917,
      "igned": 4918,
      "Ġcircum": 4919,
      "Ġnormal": 4920,
      "ĠProv": 4921,
      "ĠForg": 4922,
      "Where": 4923,
      "miss": 4924,
      "Ġsession": 4925,
      "arily": 4926,
      "List": 4927,
      "Ġà¤ıà¤«": 4928,
      "Ġactive": 4929,
      "Ġà¤ľà¤¨à¤µà¤°": 4930,
      "aximum": 4931,
      "ĠMed": 4932,
      "Ġconcerning": 4933,
      "à¤ĩà¤¨à¤®": 4934,
      "Ġwalk": 4935,
      "Ġitem": 4936,
      "à¤ķà¤¦à¤®": 4937,
      "Ġsil": 4938,
      "Ġà¤Ĺà¤²": 4939,
      "Ġformer": 4940,
      "Ġnorth": 4941,
      "Ġsle": 4942,
      "amental": 4943,
      "Ġlimited": 4944,
      "à¤¾à¤Ĥ,": 4945,
      "ĠLok": 4946,
      "apan": 4947,
      "ĠPunjab": 4948,
      "ĠRec": 4949,
      "Ġattempt": 4950,
      "Ġgreen": 4951,
      "Ġassociated": 4952,
      "Ġasset": 4953,
      "Ġà¤īà¤¤à¤°": 4954,
      "Ġtradition": 4955,
      "à¤ıà¤ļ": 4956,
      "à¤ªà¤ı": 4957,
      "Ġbond": 4958,
      "Ġcertificate": 4959,
      "Use": 4960,
      "ĠDist": 4961,
      "Ġcove": 4962,
      "09": 4963,
      "ĠLegisl": 4964,
      "ĠNot": 4965,
      "Ġsouth": 4966,
      "Ġtraditional": 4967,
      "ĠCalcutta": 4968,
      "ĠInternational": 4969,
      "Ġnumbers": 4970,
      "Ġmiddle": 4971,
      "Ġà¤Ľà¤¤": 4972,
      "Ġremove": 4973,
      "Ġtransport": 4974,
      "isement": 4975,
      "Ġlimit": 4976,
      "ĠIslamic": 4977,
      "à¤µà¤Ń": 4978,
      "à¤ĩà¤¨à¤ķ": 4979,
      "à¥ī.": 4980,
      "Ġincludes": 4981,
      "Ġchanged": 4982,
      "Ġà¤¨à¤·": 4983,
      "Ġcorrect": 4984,
      "hab": 4985,
      "ply": 4986,
      "à¥ĭà¥¤\"": 4987,
      "Ġbanks": 4988,
      "ĠProject": 4989,
      "à¤ķà¤Ī": 4990,
      "à¤Ĺà¤ķà¤°": 4991,
      "Ġpack": 4992,
      "Ġregarding": 4993,
      "TP": 4994,
      "à¥ģ-": 4995,
      "Ġsuccessful": 4996,
      "à¤ĩà¤¶": 4997,
      "Ġscript": 4998,
      "ĠDirector": 4999,
      "Ġà¤¨à¤ľà¤°": 5000,
      "ĠChair": 5001,
      "Ġpresence": 5002,
      "Ph": 5003,
      "Ġwhite": 5004,
      "\\\\": 5005,
      "ero": 5006,
      "Ġwise": 5007,
      "ishn": 5008,
      "Ġsoftware": 5009,
      "à¥Ģà¤Ĥ.": 5010,
      "Ġoption": 5011,
      "ĠMumbai": 5012,
      "Ġscientific": 5013,
      "Ġadop": 5014,
      "ene": 5015,
      "à¤Ńà¤µà¤¤": 5016,
      "Ġchief": 5017,
      "Ġà¥©": 5018,
      "Ġ2017": 5019,
      "ĠWhat": 5020,
      "à¥ĩà¤Ĥ...": 5021,
      "Their": 5022,
      "Ġà¤¹à¤®à¤²": 5023,
      "ptember": 5024,
      "Ġcontains": 5025,
      "SS": 5026,
      "Ġà¤¤à¤ķà¤²": 5027,
      "Ġblack": 5028,
      "Ġfully": 5029,
      "aran": 5030,
      "Ġà¤ħà¤¹": 5031,
      "Ġdestroyed": 5032,
      "à¤¤à¤°à¤¦": 5033,
      "Ġnote": 5034,
      "ĠResurrection": 5035,
      "Ġopinion": 5036,
      "Ġopportunities": 5037,
      "rid": 5038,
      "Ġlaid": 5039,
      "Ġsupply": 5040,
      "ĠAmerican": 5041,
      "Ġmoment": 5042,
      "Ġ2002": 5043,
      "Ġà¥§": 5044,
      "rative": 5045,
      "Ġanyone": 5046,
      "Ġcities": 5047,
      "Ġinside": 5048,
      "Ġadministration": 5049,
      "order": 5050,
      "Ġjoin": 5051,
      "ĠAsse": 5052,
      "iverse": 5053,
      "ĠMod": 5054,
      "à¥ģ.": 5055,
      "Ġwishes": 5056,
      "Ġswe": 5057,
      "asa": 5058,
      "wo": 5059,
      "].": 5060,
      "ĠSur": 5061,
      "ĠBen": 5062,
      "ĠNorth": 5063,
      "Ġblind": 5064,
      "Ġbeautiful": 5065,
      "Ġlaws": 5066,
      "Ġà¤¹à¤¡": 5067,
      "Ġà¤ªà¤µ": 5068,
      "ĠAp": 5069,
      "Ġà¤ĺà¤¨": 5070,
      "\".": 5071,
      "Ġsight": 5072,
      "ĠSpe": 5073,
      "iers": 5074,
      "Ġcy": 5075,
      "Ġton": 5076,
      "Ġhours": 5077,
      "aches": 5078,
      "Ġcross": 5079,
      "top": 5080,
      "ĠMem": 5081,
      "ĠCorpor": 5082,
      "Ġà¤Ĩà¤Ń": 5083,
      "ĠSam": 5084,
      "Ġsn": 5085,
      "ĠGard": 5086,
      "ae": 5087,
      "ricket": 5088,
      "requ": 5089,
      "Failed": 5090,
      "RL": 5091,
      "Ġnamed": 5092,
      "Ġprosper": 5093,
      "ube": 5094,
      "Ġconsist": 5095,
      "urb": 5096,
      "Ġà¤īà¤¸à¤ªà¤°": 5097,
      "Ġdesp": 5098,
      "Ġobl": 5099,
      "Ġmedical": 5100,
      "ĠResearch": 5101,
      "Ġtarget": 5102,
      "Ġdirectly": 5103,
      "Ġannoun": 5104,
      "Comment": 5105,
      "ellect": 5106,
      "Ġrail": 5107,
      "à¤īà¤ľ": 5108,
      "Ġhusband": 5109,
      "ĠWork": 5110,
      "Ġbroad": 5111,
      "Ġagriculture": 5112,
      "Ġà¤ľà¤Ł": 5113,
      "Lo": 5114,
      "Ġdrug": 5115,
      "ildren": 5116,
      "apt": 5117,
      "oted": 5118,
      "Ġplus": 5119,
      "Ġrevolution": 5120,
      "Ġplease": 5121,
      "Ġà¤¨à¤¹à¤°": 5122,
      "Ġfinal": 5123,
      "Ġà¤Ĳà¤¤": 5124,
      "Ġpropos": 5125,
      "Ġattention": 5126,
      "Ġlonger": 5127,
      "fall": 5128,
      "Ġgame": 5129,
      "âĢĶ(": 5130,
      "Ġweight": 5131,
      "Ġà¥¨à¥¦à¥¦": 5132,
      "Cre": 5133,
      "EM": 5134,
      "Ġtri": 5135,
      "à¤ªà¤¥": 5136,
      "Ġspecies": 5137,
      "ashtra": 5138,
      "ĠTrans": 5139,
      "cend": 5140,
      "02": 5141,
      "urg": 5142,
      "Ġpurch": 5143,
      "à¥Ģ;": 5144,
      "ugust": 5145,
      "ĠJanuary": 5146,
      "Aut": 5147,
      "release": 5148,
      "Ġdirectory": 5149,
      "Ġà¤ĩà¤ľ": 5150,
      "Ġworth": 5151,
      "à¤¬à¤ķ": 5152,
      "à¥īà¤ģ": 5153,
      "Ġà¤īà¤ªà¤ķ": 5154,
      "à¤Ŀà¤¸": 5155,
      "Ġcollection": 5156,
      "Ġlargest": 5157,
      "Ġsupported": 5158,
      "Ġpainful": 5159,
      "president": 5160,
      "www": 5161,
      "Sc": 5162,
      "lied": 5163,
      "à¤Łà¤ķà¤°": 5164,
      "Ġsacr": 5165,
      "ĠShah": 5166,
      "Â¤ÂŁ": 5167,
      "Ġgranted": 5168,
      "rance": 5169,
      "Ġincluded": 5170,
      "Ġassistance": 5171,
      "Ġsons": 5172,
      "ĠFore": 5173,
      "Ġarri": 5174,
      "AB": 5175,
      "Ġpaper": 5176,
      "2014": 5177,
      "Ġlooking": 5178,
      "ratic": 5179,
      "Ġsevere": 5180,
      "dden": 5181,
      "ties": 5182,
      "Ġfold": 5183,
      "Ġhighest": 5184,
      "ĠScheme": 5185,
      "izing": 5186,
      "Ġ1999": 5187,
      "Comm": 5188,
      "à¤ħà¤Ĺà¤²": 5189,
      "Ġamend": 5190,
      "Ġvillages": 5191,
      "urk": 5192,
      "ulpt": 5193,
      "Ġplug": 5194,
      "iment": 5195,
      "Man": 5196,
      "Ġtravel": 5197,
      "Ġà¤ĩà¤ķà¤Ł": 5198,
      "planation": 5199,
      "Ġrepe": 5200,
      "Ġà¤ıà¤ļ": 5201,
      "Ġsides": 5202,
      "à¤¶à¤®": 5203,
      "Ġà¤Ĩà¤ıà¤Ĺ": 5204,
      "Ġrelationship": 5205,
      "Ġdistin": 5206,
      "Per": 5207,
      "Ġcomplex": 5208,
      "Ġstrateg": 5209,
      "Ġà¤ªà¤°à¤¹": 5210,
      "inite": 5211,
      "Ġstor": 5212,
      "ĠON": 5213,
      "ofindia": 5214,
      "adh": 5215,
      "Ġdiscip": 5216,
      "hem": 5217,
      "Ġconstitution": 5218,
      "ĠEducation": 5219,
      "Ġshows": 5220,
      "ray": 5221,
      "ĠAir": 5222,
      "Ġstories": 5223,
      "Ġrelevant": 5224,
      "Ġà¤ķà¤ª": 5225,
      "apter": 5226,
      "presidentofindia": 5227,
      "ĠHow": 5228,
      "Ġofficers": 5229,
      "Ġgods": 5230,
      "Ġmountains": 5231,
      "Today": 5232,
      "à¤¼-": 5233,
      "ĠPeople": 5234,
      "Ġphot": 5235,
      "à¥ĩà¤Ĥà¤ĥ": 5236,
      "ĠShe": 5237,
      "Ġattract": 5238,
      "Ġpattern": 5239,
      "ĠAccount": 5240,
      "IV": 5241,
      "à¥§à¥¯à¥": 5242,
      "Provided": 5243,
      "Verily": 5244,
      "part": 5245,
      "erous": 5246,
      "Ġmilk": 5247,
      "Ġserve": 5248,
      "05": 5249,
      "Ġformat": 5250,
      "Therefore": 5251,
      "Ġstruggle": 5252,
      "ype": 5253,
      "Ġbenefits": 5254,
      "Ġinsp": 5255,
      "Ġcovered": 5256,
      "ask": 5257,
      "Ġsufficient": 5258,
      "ĠEm": 5259,
      "Ġaccordance": 5260,
      "Ġforgiveness": 5261,
      "Â¤Â¯": 5262,
      "Ġrevelations": 5263,
      "detail": 5264,
      "adise": 5265,
      "ĠEd": 5266,
      "Ġsomet": 5267,
      ",\"": 5268,
      "ĠUttar": 5269,
      "AD": 5270,
      "Ġdial": 5271,
      "asc": 5272,
      "iling": 5273,
      "Ġcontribution": 5274,
      "âĺ": 5275,
      "ombay": 5276,
      "Ġà¤ķà¤¸": 5277,
      "Ġball": 5278,
      "Ġgreet": 5279,
      "Ġqual": 5280,
      "Ġadvice": 5281,
      "Ġstandard": 5282,
      "Ġchalleng": 5283,
      "Ġseparate": 5284,
      "à¤°à¤ķà¤°": 5285,
      "Ġpetition": 5286,
      "inent": 5287,
      "Ġà¤¸à¤¹à¤ķ": 5288,
      "Ġà¤ķà¤®à¤°": 5289,
      "Ġcontro": 5290,
      "Ġmeasures": 5291,
      "aug": 5292,
      "à¤°à¤¯à¤¤": 5293,
      "ĠâĢľ%": 5294,
      "Ġsteps": 5295,
      "Ġmemory": 5296,
      "ĠAy": 5297,
      "ĠSch": 5298,
      "osis": 5299,
      "Ġrespond": 5300,
      "ĠRight": 5301,
      "ribute": 5302,
      "Ġautom": 5303,
      "Ġspend": 5304,
      "ahar": 5305,
      "Ġ2012": 5306,
      "Ġexpenditure": 5307,
      "à¤Ĺà¤¢": 5308,
      "Ġthreat": 5309,
      "ighty": 5310,
      "Ġconstruction": 5311,
      "CO": 5312,
      "Ġà¤¬à¤¨à¤¤": 5313,
      "Ġquick": 5314,
      "Ġà¤¸à¤ľà¤¦": 5315,
      "Ġterrorism": 5316,
      "ĠLib": 5317,
      "Ġpred": 5318,
      "Ġgold": 5319,
      "Ġà¤¦à¤µ": 5320,
      "aken": 5321,
      "Ġtemples": 5322,
      "Ġexpression": 5323,
      "ĠTamil": 5324,
      "ateral": 5325,
      "Ġtemper": 5326,
      "utes": 5327,
      "ĠWise": 5328,
      "atha": 5329,
      "pper": 5330,
      "ĠIndians": 5331,
      "Ġpolic": 5332,
      "à¤Ĥ.": 5333,
      "ken": 5334,
      "à¥į;": 5335,
      "à¤ļà¤¤à¤®": 5336,
      "Ġà¤Ĺà¤łà¤¨": 5337,
      "Ġprotection": 5338,
      "rust": 5339,
      "à¤¨à¤Ī": 5340,
      "Ġspeed": 5341,
      "07": 5342,
      "Ġrelation": 5343,
      "ehru": 5344,
      "Ġopened": 5345,
      "Mu": 5346,
      "Ġoccup": 5347,
      "Min": 5348,
      "Ġconce": 5349,
      "Ġrange": 5350,
      "icip": 5351,
      "enced": 5352,
      "verse": 5353,
      "aker": 5354,
      "Ġfaces": 5355,
      "Under": 5356,
      "Ġlength": 5357,
      "Ġextent": 5358,
      "ography": 5359,
      "Ġviolence": 5360,
      "à¤¡à¤ª": 5361,
      "Ġsomeone": 5362,
      "Ġoffe": 5363,
      "America": 5364,
      "Hind": 5365,
      "Ġprot": 5366,
      "UT": 5367,
      "Ġbelief": 5368,
      "Ġnations": 5369,
      "à¤ıà¤¶": 5370,
      "ikh": 5371,
      "National": 5372,
      "icated": 5373,
      "ropriate": 5374,
      "IM": 5375,
      "à¤¨à¤ª": 5376,
      "hent": 5377,
      "ĠIS": 5378,
      "Ġpermission": 5379,
      "Ġcompleted": 5380,
      "Other": 5381,
      "alty": 5382,
      "oo": 5383,
      "Ġleading": 5384,
      "oined": 5385,
      "ĠID": 5386,
      "Ġroad": 5387,
      "Ġdram": 5388,
      "Ġmale": 5389,
      "Ġdemocracy": 5390,
      "Ġappeal": 5391,
      "Ġmoon": 5392,
      "Save": 5393,
      "Ġà¤Ĩà¤īà¤Ł": 5394,
      "ĠSar": 5395,
      "Ġrise": 5396,
      "à¤ħà¤Ĺ": 5397,
      "Ġinj": 5398,
      "Ġcentre": 5399,
      "Ġcells": 5400,
      "Ġcooperation": 5401,
      "rog": 5402,
      "stances": 5403,
      "Surely": 5404,
      "Ġleader": 5405,
      "lands": 5406,
      "alys": 5407,
      "Ġarrange": 5408,
      "pense": 5409,
      "Ġconnected": 5410,
      "à¤·à¤§": 5411,
      "icit": 5412,
      "ĠBill": 5413,
      "Â¥Âĭ": 5414,
      "Ġhosp": 5415,
      "Ġheight": 5416,
      "Ġdenied": 5417,
      "ĠNet": 5418,
      "à¤¦à¤µ": 5419,
      "ĠSurely": 5420,
      "à¤ķà¤ķ": 5421,
      "Ġmedia": 5422,
      "Ġà¤Ĩà¤ł": 5423,
      "Ġapost": 5424,
      "Ġassets": 5425,
      "Ġà¤¹à¤¥": 5426,
      "Ġjoint": 5427,
      "nes": 5428,
      "Ġcode": 5429,
      "Ġcalc": 5430,
      "Ġsudden": 5431,
      "Ġresident": 5432,
      "ought": 5433,
      "umber": 5434,
      "à¤¾à¤ģ,": 5435,
      "ously": 5436,
      "omin": 5437,
      "raft": 5438,
      "ensive": 5439,
      "Ġperformance": 5440,
      "Ġselect": 5441,
      "Ġ32": 5442,
      "hra": 5443,
      "à¤īà¤ªà¤¯": 5444,
      "Ġgrowing": 5445,
      "Ġeye": 5446,
      "mar": 5447,
      "Ġstanding": 5448,
      "Ġtool": 5449,
      "OL": 5450,
      "Ġà¤īà¤ķ": 5451,
      "ĠTruth": 5452,
      "Ġwin": 5453,
      "ĠAND": 5454,
      "Ġcam": 5455,
      "Ġentered": 5456,
      "Ġfra": 5457,
      "Ġà¤Ĩà¤«": 5458,
      "Ġrecent": 5459,
      "Ġquestions": 5460,
      "Ġ75": 5461,
      "Ġpromised": 5462,
      "Ġuseful": 5463,
      "ĠAmerica": 5464,
      "Ġrelease": 5465,
      "abh": 5466,
      "Ġmedic": 5467,
      "race": 5468,
      "à¥°": 5469,
      "Ġwon": 5470,
      "Ġmodel": 5471,
      "Ġexecut": 5472,
      "ĠList": 5473,
      "Ġimper": 5474,
      "Ġadvance": 5475,
      "Ġproof": 5476,
      "Ġwatch": 5477,
      "Ġpowerful": 5478,
      "Ġlocated": 5479,
      "who": 5480,
      "aul": 5481,
      "asthan": 5482,
      "Ġstream": 5483,
      "à¤Ĩà¤µ": 5484,
      "à¤¾!": 5485,
      "ĠBang": 5486,
      "ĠRem": 5487,
      "Ġresults": 5488,
      "Ġstraight": 5489,
      "resp": 5490,
      "Ġchann": 5491,
      "Ġemerg": 5492,
      "ĠTag": 5493,
      "Ġprofess": 5494,
      "Sim": 5495,
      "Ġcorru": 5496,
      "Ġdeclared": 5497,
      "Ġfruit": 5498,
      "Ġ90": 5499,
      "Ġterrit": 5500,
      "PS": 5501,
      "ĠSystem": 5502,
      "Ġsite": 5503,
      "Ġfunds": 5504,
      "oga": 5505,
      "Ġforgive": 5506,
      ".%": 5507,
      "ĠDes": 5508,
      "Ġmechan": 5509,
      "Ġeducational": 5510,
      "Ġitems": 5511,
      "ĠFund": 5512,
      "ĠAsia": 5513,
      "board": 5514,
      "ĠKrishna": 5515,
      "uff": 5516,
      "ops": 5517,
      "osing": 5518,
      "ĠWill": 5519,
      "rad": 5520,
      "à¤¨à¤¬": 5521,
      "Ġunique": 5522,
      "ox": 5523,
      "à¤łà¤Ń": 5524,
      "ruary": 5525,
      "Which": 5526,
      "Ġdocuments": 5527,
      "à¤µà¤¸à¤¨": 5528,
      "arer": 5529,
      "Ġblock": 5530,
      "Ġà¤ħà¤ķà¤¬à¤°": 5531,
      "Ġsignificant": 5532,
      "Par": 5533,
      "oming": 5534,
      "ferences": 5535,
      "Ġfunctions": 5536,
      "inet": 5537,
      "Ġcontain": 5538,
      "Ġrepent": 5539,
      "ĠDecember": 5540,
      "Ġintellect": 5541,
      "Ġinvolved": 5542,
      "phas": 5543,
      "ifying": 5544,
      "Ġenemy": 5545,
      "80": 5546,
      "Ġotherwise": 5547,
      "à¤®à¤ª": 5548,
      "ateful": 5549,
      "ighb": 5550,
      "Ġaverage": 5551,
      "ĠURL": 5552,
      "Ġimplementation": 5553,
      "Ġadopted": 5554,
      "Ġà¤µà¤ļà¤¨": 5555,
      "ĠAfrica": 5556,
      "Ġready": 5557,
      "tered": 5558,
      "ĠAt": 5559,
      "cont": 5560,
      "ebruary": 5561,
      "Ġmental": 5562,
      "oms": 5563,
      "Ġdeemed": 5564,
      "Ġsuc": 5565,
      "Ġdivided": 5566,
      "ĠAssembly": 5567,
      "Ġcard": 5568,
      "Ġtransgress": 5569,
      "Ġtaste": 5570,
      "Ġjourney": 5571,
      "Ġtal": 5572,
      "85": 5573,
      "ĠSign": 5574,
      "you": 5575,
      "Ġsister": 5576,
      "Ġcou": 5577,
      "Ġbalance": 5578,
      "ĠChina": 5579,
      "Ġpan": 5580,
      "à¤ĩà¤¬": 5581,
      "Ġà¤Ľà¤¹": 5582,
      "Ġburd": 5583,
      "Ġrank": 5584,
      "Ġexceed": 5585,
      "Its": 5586,
      "Ġtwenty": 5587,
      "Ġfoot": 5588,
      "ĠHindus": 5589,
      "aud": 5590,
      "ĠIT": 5591,
      "ĠBombay": 5592,
      "ĠWar": 5593,
      "athy": 5594,
      "odies": 5595,
      "ĠForgiving": 5596,
      "Ġpure": 5597,
      "asons": 5598,
      "ĠVal": 5599,
      "rene": 5600,
      "ĠGe": 5601,
      "Ġwo": 5602,
      "à¤ľà¤§": 5603,
      "ĠJew": 5604,
      "hens": 5605,
      "which": 5606,
      "Ġinfluence": 5607,
      "Ġupd": 5608,
      "urrent": 5609,
      "inery": 5610,
      "ĠDis": 5611,
      "Ġarchitect": 5612,
      "Create": 5613,
      "Ġwills": 5614,
      "stituted": 5615,
      "Te": 5616,
      "à¤ĩà¤µ": 5617,
      ":-": 5618,
      "Set": 5619,
      "co": 5620,
      "Ed": 5621,
      "Ġthinking": 5622,
      "ĠBar": 5623,
      "Ġapprec": 5624,
      "Ġsaved": 5625,
      "Ġlabour": 5626,
      "ĠOpen": 5627,
      "itch": 5628,
      "olute": 5629,
      "aji": 5630,
      "Ġrupe": 5631,
      "Ġchastisement": 5632,
      "Ġacadem": 5633,
      "Ġà¤ħà¤¹à¤®": 5634,
      "ĠPur": 5635,
      "Ġsculpt": 5636,
      "ĠArt": 5637,
      "Ġsometimes": 5638,
      "Ġtrial": 5639,
      "ĠSri": 5640,
      "Ġà¤ıà¤ķà¤®": 5641,
      "Ġstated": 5642,
      "Ġrock": 5643,
      "Ġpleasure": 5644,
      "Ġstock": 5645,
      "aja": 5646,
      "Ġpil": 5647,
      "Ġprec": 5648,
      "Ġgets": 5649,
      "Ġhelped": 5650,
      "Ġheavy": 5651,
      "ĠBal": 5652,
      "à¤Ĩà¤¸": 5653,
      "ĠVerily": 5654,
      "Ġmarriage": 5655,
      "à¤°à¤Ĩà¤¨": 5656,
      "Ġà¤īà¤Ń": 5657,
      "Ass": 5658,
      "à¤Īà¤®": 5659,
      "Ġ189": 5660,
      "Ġoperations": 5661,
      "Ġesc": 5662,
      "ĠPat": 5663,
      "Ġknowing": 5664,
      "arma": 5665,
      "Most": 5666,
      "Ġevents": 5667,
      "Ġsins": 5668,
      "à¤īà¤¨à¤²": 5669,
      "view": 5670,
      "Ġseems": 5671,
      "Ġfocus": 5672,
      "Ġ01": 5673,
      "ĠBihar": 5674,
      "Ġfurn": 5675,
      "Ġexport": 5676,
      "Ġcommercial": 5677,
      "Ġà¤ħà¤¸à¤²": 5678,
      "Ġstaff": 5679,
      "onse": 5680,
      "ĠOctober": 5681,
      "Ġextreme": 5682,
      "Ġà¤®à¤ľà¤¦": 5683,
      "Ġtrees": 5684,
      "yan": 5685,
      "Ġhour": 5686,
      "Ġpursu": 5687,
      "à¤µà¤¦à¤°": 5688,
      "à¤·à¤ķà¤°": 5689,
      "Ġconsequ": 5690,
      "Ġreading": 5691,
      "ĠInt": 5692,
      "ĠJune": 5693,
      "Ġconsult": 5694,
      "Ġà¤Ĺà¤ł": 5695,
      "olid": 5696,
      "Ġleaves": 5697,
      "Ġconfig": 5698,
      "ĠMessengers": 5699,
      "Ġutil": 5700,
      "Ġsymbol": 5701,
      "âĺ»": 5702,
      "ET": 5703,
      "Ġperman": 5704,
      "itled": 5705,
      "Of": 5706,
      "RAN": 5707,
      "atically": 5708,
      "ĠSah": 5709,
      "à¤²à¤¡": 5710,
      "Ġà¤ĸà¤¤": 5711,
      "ora": 5712,
      "roud": 5713,
      "Ġneeded": 5714,
      "ĠGujarat": 5715,
      "pty": 5716,
      "Ġapart": 5717,
      "Ġarmy": 5718,
      "Ġà¤ħà¤Ĺà¤¸": 5719,
      "Ġconsideration": 5720,
      "Ġpoems": 5721,
      "chand": 5722,
      "Ġdescribed": 5723,
      "Ġemployees": 5724,
      "Ġdied": 5725,
      "Ġà¤ķà¤²à¤ķà¤¤": 5726,
      "ĠManagement": 5727,
      "ilateral": 5728,
      "Ġreview": 5729,
      "Ġkilled": 5730,
      "Ġà¤®à¤Ī": 5731,
      "lex": 5732,
      "Ġlikely": 5733,
      "Ġ45": 5734,
      "ĠCons": 5735,
      "Ġhyp": 5736,
      "26": 5737,
      "Ġà¤ªà¤¸à¤¨": 5738,
      "Ġà¤¤à¤Ń": 5739,
      "lication": 5740,
      "Ġ2019": 5741,
      "Ġanimal": 5742,
      "Qu": 5743,
      "atma": 5744,
      "ests": 5745,
      "ĠView": 5746,
      "Ġdrive": 5747,
      "Ġneighb": 5748,
      "assion": 5749,
      "Ġ2003": 5750,
      "uries": 5751,
      "aling": 5752,
      "Ġmid": 5753,
      "ĠSet": 5754,
      "Ġdoers": 5755,
      "Ġcircumstances": 5756,
      "Because": 5757,
      "Ġwood": 5758,
      "Ġlines": 5759,
      "ĠDh": 5760,
      "Ġà¤ħà¤¸à¤®à¤°": 5761,
      "ps": 5762,
      "Ġconvey": 5763,
      "Ġshape": 5764,
      "ĠTra": 5765,
      "Ġdomestic": 5766,
      "Ġhot": 5767,
      "ĠSm": 5768,
      "Ġremained": 5769,
      "Ġà¤Ķà¤¸à¤¤": 5770,
      "Ġmajority": 5771,
      "hand": 5772,
      "ipt": 5773,
      "uled": 5774,
      "Ġcauses": 5775,
      "Ġschemes": 5776,
      "à¥Ĭ": 5777,
      "ression": 5778,
      "Comp": 5779,
      "cher": 5780,
      "aters": 5781,
      "à¤Ĩà¤Ĺ": 5782,
      "hel": 5783,
      "osen": 5784,
      "nam": 5785,
      "dis": 5786,
      "Ġdwell": 5787,
      "Here": 5788,
      "box": 5789,
      "ĠÐ": 5790,
      "llig": 5791,
      "Ġfigure": 5792,
      "Rep": 5793,
      "à¤§à¤µ": 5794,
      "Ġseem": 5795,
      "Ġpolicies": 5796,
      "ĠFile": 5797,
      "Ġgardens": 5798,
      "Ġcry": 5799,
      "ĠBharat": 5800,
      "Ġdifference": 5801,
      "ĠAbraham": 5802,
      "Ġcommitted": 5803,
      "DE": 5804,
      "Ġindependence": 5805,
      "à¤¤à¤¥": 5806,
      "Ġfathers": 5807,
      "Ġà¤¨à¤«": 5808,
      "à¤¡à¤ķ": 5809,
      "ula": 5810,
      "Ġinterests": 5811,
      "iled": 5812,
      "Ġà¤Ķà¤²": 5813,
      "Ġtechnical": 5814,
      "Ġgrace": 5815,
      "à¥Ģ?": 5816,
      "à¤ķà¤²à¤¤": 5817,
      "Ġà¤īà¤§": 5818,
      "à¤Īà¤¸": 5819,
      "ĠBab": 5820,
      "Ġentry": 5821,
      "IP": 5822,
      "à¥Ģ:": 5823,
      "à¥Ī!": 5824,
      "Ġvalid": 5825,
      "Ġfields": 5826,
      "ja": 5827,
      "Ġà¤Ĩà¤°à¤®": 5828,
      "Ġfamilies": 5829,
      "Ġlived": 5830,
      "Ġremains": 5831,
      "unal": 5832,
      "Ġà¤¦à¤°à¤µ": 5833,
      "Ġà¤°à¤¹à¤®": 5834,
      "imal": 5835,
      "enth": 5836,
      "iry": 5837,
      "ague": 5838,
      "Ġ36": 5839,
      "this": 5840,
      "Ġdeveloping": 5841,
      "Ġà¤Ĩà¤¸à¤ª": 5842,
      "AM": 5843,
      "Ġhearing": 5844,
      "Ġframe": 5845,
      "back": 5846,
      "à¤ķà¤¥": 5847,
      "à¥ģ,": 5848,
      "à¤ªà¤¹": 5849,
      "Ġweb": 5850,
      "Ġsecure": 5851,
      "Ġsucceed": 5852,
      "Ġtrack": 5853,
      "Ġofficer": 5854,
      "Well": 5855,
      "Reg": 5856,
      "uation": 5857,
      "enge": 5858,
      "omic": 5859,
      "Ġpill": 5860,
      "Ġà¤¬à¤¹à¤¨": 5861,
      "ĠUp": 5862,
      "Ġcalendar": 5863,
      "Ġ2004": 5864,
      "Ġcapt": 5865,
      "ĠChandra": 5866,
      "OP": 5867,
      "Ġà¤ļà¤ĸ": 5868,
      "ĠPharaoh": 5869,
      "Ġtrying": 5870,
      "Ġmilitary": 5871,
      "File": 5872,
      "rated": 5873,
      "ĠWestern": 5874,
      "auty": 5875,
      "Ġemphas": 5876,
      "Ġà¤ľà¤¯": 5877,
      "ĠAuthor": 5878,
      "rehens": 5879,
      "à¤Łà¤¶à¤¬": 5880,
      "Ġcontained": 5881,
      "Ġà¤¸à¤¶à¤ķ": 5882,
      "ented": 5883,
      "ĠGh": 5884,
      "cript": 5885,
      "Ġfacilit": 5886,
      "Int": 5887,
      "Ġsort": 5888,
      "Muhammad": 5889,
      "Ġdepart": 5890,
      "Ġbox": 5891,
      "Ġfit": 5892,
      "ĠProgram": 5893,
      "Ġdang": 5894,
      "fection": 5895,
      "aign": 5896,
      "à¤¶à¤¦": 5897,
      "Ġremark": 5898,
      "Ġextra": 5899,
      "AC": 5900,
      "à¤¶à¤¸": 5901,
      "Ġdance": 5902,
      "lying": 5903,
      "Ġsurface": 5904,
      "ĠPre": 5905,
      "ĠNovember": 5906,
      "Ġworked": 5907,
      "Ġvariety": 5908,
      "Ġpric": 5909,
      "Ġseries": 5910,
      "Section": 5911,
      "à¤¯à¤ľ": 5912,
      "ications": 5913,
      "Ġreference": 5914,
      "Ġwithd": 5915,
      "iences": 5916,
      "ĠNehru": 5917,
      "Ġà¤ĺà¤Łà¤ķ": 5918,
      "Ġconstruct": 5919,
      "Ġengaged": 5920,
      "Ġtable": 5921,
      "Ġregistered": 5922,
      "aging": 5923,
      "Le": 5924,
      "Ġlevels": 5925,
      "21": 5926,
      "col": 5927,
      "ĠSan": 5928,
      "iance": 5929,
      "pid": 5930,
      "Ġà¤¸à¤¤à¤¹": 5931,
      "ĠDev": 5932,
      "ĠAkbar": 5933,
      "à¤¤à¤¸": 5934,
      "erala": 5935,
      "ĠFinance": 5936,
      "ĠLaw": 5937,
      "atter": 5938,
      "Ġgain": 5939,
      "pped": 5940,
      "Ġimages": 5941,
      "03": 5942,
      "Ġnuc": 5943,
      "Ġexists": 5944,
      "Ġà¤ľà¤²à¤µ": 5945,
      "2015": 5946,
      "Ġstandards": 5947,
      "à¥¤\"": 5948,
      "istory": 5949,
      "ĠUN": 5950,
      "epal": 5951,
      "Ġappropriate": 5952,
      "ĠRel": 5953,
      "Ġamongst": 5954,
      "Ġpromote": 5955,
      "earing": 5956,
      "Ġportion": 5957,
      "Ġà¤®à¤Ľà¤²": 5958,
      "Ġexpected": 5959,
      "Ġrisk": 5960,
      ")(": 5961,
      "fig": 5962,
      "overy": 5963,
      "icate": 5964,
      "ĠKal": 5965,
      "Ġveget": 5966,
      "ĠPand": 5967,
      "ĠGroup": 5968,
      "Ġexcl": 5969,
      "ti": 5970,
      "Ġmiss": 5971,
      "Ġdyn": 5972,
      "à¥Īà¤Ĥà¤ĥ": 5973,
      "à¤ħà¤®à¤¤": 5974,
      "prh": 5975,
      "Ġindependent": 5976,
      "à¤¸à¤«": 5977,
      "Ġà¤®à¤¹à¤²": 5978,
      "ĠQu": 5979,
      "Ġelements": 5980,
      "Ġmighty": 5981,
      "ĠSeptember": 5982,
      "htmlhttp": 5983,
      "Ġstorage": 5984,
      "à¤ķà¤¶": 5985,
      "ounty": 5986,
      "UN": 5987,
      "Ġvoice": 5988,
      "ika": 5989,
      "Ġmouth": 5990,
      "Ġexpand": 5991,
      "Ġwel": 5992,
      "unk": 5993,
      "Ġlarger": 5994,
      "ktop": 5995,
      "Ġlack": 5996,
      "Any": 5997,
      "Ġexpressed": 5998,
      "Ġegg": 5999,
      "Unable": 6000,
      "Ġ2009": 6001,
      "Ġdivine": 6002,
      "ĠSAW": 6003,
      "Ġadditional": 6004,
      "heck": 6005,
      "Fl": 6006,
      "à¤Ľà¤¨": 6007,
      "ĠGl": 6008,
      "ĠSecretary": 6009,
      ".âĢĶ": 6010,
      "Ġraise": 6011,
      "à¥¯": 6012,
      "Ġà¤īà¤ľ": 6013,
      "Ġinterp": 6014,
      "Ġprofit": 6015,
      "ĠConference": 6016,
      "à¤°à¤ļà¤²": 6017,
      "ĠCD": 6018,
      "Ġcompon": 6019,
      "ĠUr": 6020,
      "uel": 6021,
      "à¤®à¤°à¤£": 6022,
      "ĠAh": 6023,
      "Ġearn": 6024,
      "Ġresponse": 6025,
      "ĠNath": 6026,
      "Ġdisob": 6027,
      "ĠEvolution": 6028,
      "xy": 6029,
      "ĠGerm": 6030,
      "Ġspent": 6031,
      "Ġcorpor": 6032,
      "efault": 6033,
      "Ġfruits": 6034,
      "Ġtouch": 6035,
      ".âĢĿ": 6036,
      "SL": 6037,
      "ili": 6038,
      "Ġminus": 6039,
      "Ġadvant": 6040,
      "Ġshr": 6041,
      "ĠTax": 6042,
      "Ġchoose": 6043,
      "Ġconsciousness": 6044,
      "raf": 6045,
      "Ġà¤ĩà¤¸à¤°": 6046,
      "Ġshares": 6047,
      "una": 6048,
      "shipp": 6049,
      "Ġsaf": 6050,
      "Ġemail": 6051,
      "ij": 6052,
      "Ġtaught": 6053,
      "Ġresol": 6054,
      "Ġsup": 6055,
      "Ġperfect": 6056,
      "Ġlooked": 6057,
      "rang": 6058,
      "Ġprocessing": 6059,
      "ĠOffice": 6060,
      "Ġgather": 6061,
      "Ġmaintain": 6062,
      "reprene": 6063,
      "hered": 6064,
      "04": 6065,
      "Â¹": 6066,
      "ese": 6067,
      "Ġpayable": 6068,
      "oom": 6069,
      "Ġà¤Ĺà¤£à¤¨": 6070,
      "ishing": 6071,
      "arb": 6072,
      "Ġcalls": 6073,
      "Ġelectric": 6074,
      "Ġextended": 6075,
      "Ġoutput": 6076,
      "Ġchosen": 6077,
      "Ġà¤Ńà¤¤": 6078,
      "lick": 6079,
      "ĠThou": 6080,
      "uous": 6081,
      "Ġcolumn": 6082,
      "ĠPolicy": 6083,
      "Ag": 6084,
      "ghan": 6085,
      "era": 6086,
      "à¤īà¤²": 6087,
      "Ġtruly": 6088,
      "Ġintroduced": 6089,
      "Ġmedium": 6090,
      "Ġ1956": 6091,
      "Ġproud": 6092,
      "osphere": 6093,
      "ifice": 6094,
      "Ġmachine": 6095,
      "Ġà¤Ĩà¤¨à¤¨": 6096,
      "teen": 6097,
      "Ġobserved": 6098,
      "à¤¡à¤¬": 6099,
      "Ġ2020": 6100,
      "alt": 6101,
      "Ġsquare": 6102,
      "Ġhappened": 6103,
      "Ġsongs": 6104,
      "nded": 6105,
      "Ġà¤¹à¤®à¤¸": 6106,
      "Ġprefer": 6107,
      "06": 6108,
      "Ġpraise": 6109,
      "Col": 6110,
      "Sp": 6111,
      "look": 6112,
      "Ġmaster": 6113,
      "Ġquant": 6114,
      "Ġenable": 6115,
      "Ġdistribution": 6116,
      "Ġprofession": 6117,
      "Ġdeduction": 6118,
      "ĠCorporation": 6119,
      "Ġexternal": 6120,
      "ĠKhan": 6121,
      "ĠIns": 6122,
      "Ġ500": 6123,
      "Ġrefuge": 6124,
      "Ġbrings": 6125,
      "Ġfine": 6126,
      "ĠPlease": 6127,
      "AG": 6128,
      "Move": 6129,
      "uris": 6130,
      "idy": 6131,
      "Ġonline": 6132,
      "ĠWhere": 6133,
      "Ġrare": 6134,
      "à¤Ľà¤¡": 6135,
      "nto": 6136,
      "Ġincl": 6137,
      "iny": 6138,
      "Ġdesires": 6139,
      "Ġimpact": 6140,
      "Ġclearly": 6141,
      "à¥Īà¤Ĥ;": 6142,
      "usive": 6143,
      "Ġvast": 6144,
      "Ġunc": 6145,
      "2016": 6146,
      "Ġmagic": 6147,
      "uties": 6148,
      "Ġevening": 6149,
      "icked": 6150,
      "ixt": 6151,
      "phone": 6152,
      "Ġmessengers": 6153,
      "ĠEngland": 6154,
      "ĠGanga": 6155,
      "Ġrejected": 6156,
      "ĠII": 6157,
      "Ġremoved": 6158,
      "Me": 6159,
      "ĠHy": 6160,
      "apers": 6161,
      "Ġcop": 6162,
      "Ġà¤Īà¤°": 6163,
      "ĠJapan": 6164,
      "Ġcloud": 6165,
      "Ġprem": 6166,
      "Ġsurround": 6167,
      "Enter": 6168,
      "rel": 6169,
      "ially": 6170,
      "Ġthroughout": 6171,
      "Ġideal": 6172,
      "Ġdistance": 6173,
      "Ġorganisation": 6174,
      "Ġteachers": 6175,
      "Ġlaunched": 6176,
      "à¤¹à¤µ": 6177,
      "Ġdated": 6178,
      "ĠRoy": 6179,
      "Ġunity": 6180,
      "ĠScript": 6181,
      "ĠAugust": 6182,
      "à¤łà¤¤": 6183,
      "pted": 6184,
      "Ġrefers": 6185,
      "Ġeasily": 6186,
      "SE": 6187,
      "Ġinput": 6188,
      "Ġlocation": 6189,
      "Sw": 6190,
      "à¤¸à¤ľ": 6191,
      "Ġskin": 6192,
      "iar": 6193,
      "Ġavoid": 6194,
      "Ġmainly": 6195,
      "Ġhappen": 6196,
      "Ġbrothers": 6197,
      "ousing": 6198,
      "ĠChairman": 6199,
      "Ġworshipp": 6200,
      "Ġschools": 6201,
      "Ġexercise": 6202,
      "istics": 6203,
      "Ġphilosophy": 6204,
      "Rel": 6205,
      "hu": 6206,
      "ĠÂ": 6207,
      "Ġgas": 6208,
      "verty": 6209,
      "Only": 6210,
      "Ġprocedure": 6211,
      "Ġbab": 6212,
      "à¤¸à¤®à¤Ŀ": 6213,
      "Ġequip": 6214,
      "aman": 6215,
      "Ġstore": 6216,
      "Ġkinds": 6217,
      "Ġoffered": 6218,
      "Ġwives": 6219,
      "Ġà¤¦à¤°à¤®": 6220,
      "Ġpoverty": 6221,
      "Ġcrops": 6222,
      "Ġà¤ľà¤¨à¤ľ": 6223,
      "Ġstudies": 6224,
      "Ġjoy": 6225,
      "Ġmaximum": 6226,
      "Ġabroad": 6227,
      "erative": 6228,
      "Ġà¤°à¤¹à¤®à¤¤": 6229,
      "Ġ33": 6230,
      "ception": 6231,
      "Ġignor": 6232,
      "Ġinaug": 6233,
      "Ġseed": 6234,
      "Ġannual": 6235,
      "à¤¯à¤Ĺ": 6236,
      "Ġprint": 6237,
      "à¤Ĺà¤£à¤¨": 6238,
      "Ġobjective": 6239,
      "à¤®à¤¶": 6240,
      "ĠCan": 6241,
      "à¤ħà¤¦": 6242,
      "Ġà¤Ĩà¤ĵ": 6243,
      "ura": 6244,
      "umar": 6245,
      "Ġviews": 6246,
      "load": 6247,
      "Ġcattle": 6248,
      "Ġ115": 6249,
      "Ġconvers": 6250,
      "Ġsectors": 6251,
      "Ġ1947": 6252,
      "Ġkingdom": 6253,
      "Ġà¤ķà¤¤": 6254,
      "oph": 6255,
      "ĠJuly": 6256,
      "Ġlisten": 6257,
      "Ġcharacters": 6258,
      "actions": 6259,
      "Ġorg": 6260,
      "Ġkm": 6261,
      "grat": 6262,
      "Ġ185": 6263,
      "à¤¾à¤ĥ%": 6264,
      "Ġfill": 6265,
      "Ġcultiv": 6266,
      "Ġpoints": 6267,
      "More": 6268,
      "ndra": 6269,
      "Ġht": 6270,
      "ĠBhag": 6271,
      "Ġbeauty": 6272,
      "ĠPort": 6273,
      "Ġconver": 6274,
      "Ġgreatest": 6275,
      "Start": 6276,
      "Ġdetermined": 6277,
      "Ġdece": 6278,
      "Ġmagn": 6279,
      "ivered": 6280,
      "à¥Ī...": 6281,
      "Ġelement": 6282,
      "ĠRajasthan": 6283,
      "Ġpartnership": 6284,
      "Ġsafety": 6285,
      "Ġtid": 6286,
      "Ġapplications": 6287,
      "Ġdoor": 6288,
      "Ġourselves": 6289,
      "Ġsleep": 6290,
      "à¤¾:": 6291,
      "Ġreflect": 6292,
      "ĠBuddh": 6293,
      "ius": 6294,
      "enior": 6295,
      "Ġarticles": 6296,
      "Ġforget": 6297,
      "ocal": 6298,
      "Ġà¤¸à¤¹à¤ľ": 6299,
      "ĠScience": 6300,
      "ĠEuropean": 6301,
      "à¥ĩà¤Ĥ?": 6302,
      "Ġliterary": 6303,
      "amet": 6304,
      "Ġfeeling": 6305,
      "ĠPers": 6306,
      "Ġattach": 6307,
      "ped": 6308,
      "ira": 6309,
      "ĠPRESIDENT": 6310,
      "itis": 6311,
      "arth": 6312,
      "Ġwaste": 6313,
      "Ġprison": 6314,
      "Ġacts": 6315,
      "ĠMaharashtra": 6316,
      "Ġpresident": 6317,
      "Ġcontext": 6318,
      "ĠDistrict": 6319,
      "ĠTagore": 6320,
      "Ġà¤°à¤¹à¤¸": 6321,
      "Ġstation": 6322,
      "aped": 6323,
      "à¤Ĺà¤ł": 6324,
      "ĠAc": 6325,
      "Ġquar": 6326,
      "Ġearned": 6327,
      "Ġ2011": 6328,
      "Ġassociation": 6329,
      "Ġà¤ħà¤¡": 6330,
      "Ġplain": 6331,
      "Ġcontem": 6332,
      "Ġcharges": 6333,
      "Ġreduced": 6334,
      "ĠHT": 6335,
      "Ġà¤ĳà¤¨à¤²": 6336,
      "Ġremem": 6337,
      "Âµ": 6338,
      "Ġchem": 6339,
      "Ġà¤ķà¤¹à¤²": 6340,
      "Ġgraph": 6341,
      "Ġfestival": 6342,
      "Ġhomes": 6343,
      "ĠPalest": 6344,
      "Ġlik": 6345,
      "Ġparliament": 6346,
      "Ġmutual": 6347,
      "Ġsettle": 6348,
      "Ġbirds": 6349,
      "Ġà¤ħà¤ªà¤®": 6350,
      "Ġà¤ķà¤ļ": 6351,
      "athi": 6352,
      "Ġcommunication": 6353,
      "Ġhonour": 6354,
      "Bl": 6355,
      "Ġsale": 6356,
      "ayana": 6357,
      "ĠSchool": 6358,
      "oj": 6359,
      "Ġaffairs": 6360,
      "Ġwisdom": 6361,
      "abhar": 6362,
      "rees": 6363,
      "Ġà¤ªà¤ļ": 6364,
      "eting": 6365,
      "Ġintellig": 6366,
      "Ġà¤²à¤ķà¤¡": 6367,
      "Ġsoil": 6368,
      "Ġconfidence": 6369,
      "Ġopening": 6370,
      "27": 6371,
      "hya": 6372,
      "Ġwants": 6373,
      "à¤¼à¤¾à¥¤": 6374,
      "Enable": 6375,
      "ught": 6376,
      "lly": 6377,
      "aces": 6378,
      "Ġwhosoever": 6379,
      "Ġpoly": 6380,
      "Ġ70": 6381,
      "Ġdefined": 6382,
      "à¤¦à¤ª": 6383,
      "à¤ŀà¤¤": 6384,
      "irty": 6385,
      "Ġmerely": 6386,
      "Sec": 6387,
      "Ġhidden": 6388,
      "ĠâĢĿ-": 6389,
      "Explanation": 6390,
      "Ġmachinery": 6391,
      "à¤ĩà¤¤à¤¨": 6392,
      "osh": 6393,
      "ĠParadise": 6394,
      "Ġà¤ħà¤¨à¤ķ": 6395,
      "Ġbreast": 6396,
      "ĠFebruary": 6397,
      "Ġdaily": 6398,
      "Ġhell": 6399,
      "Ġdepartment": 6400,
      "Ġborrow": 6401,
      "Ġà¤Ķà¤·à¤§": 6402,
      "à¤£à¤ķ": 6403,
      "Ġsell": 6404,
      "Ġhospital": 6405,
      "Ġfert": 6406,
      "ghal": 6407,
      "ĠProf": 6408,
      "Ġslow": 6409,
      "à¤ĩà¤¤": 6410,
      "ologies": 6411,
      "Ġdelivered": 6412,
      "Ġaffected": 6413,
      "Ġdeliver": 6414,
      "alysis": 6415,
      "Ġreasons": 6416,
      "Ġphone": 6417,
      "ka": 6418,
      "Ġmoving": 6419,
      "Ġinsects": 6420,
      "Ġfrequ": 6421,
      "Ġà¤Ĩà¤®à¤¤": 6422,
      "udget": 6423,
      "Ġrupees": 6424,
      "Su": 6425,
      "Ġopt": 6426,
      "ĠSoci": 6427,
      "Ġscreen": 6428,
      "Ġmessenger": 6429,
      "anguage": 6430,
      "28": 6431,
      "Ġhuge": 6432,
      "lege": 6433,
      "Ġregions": 6434,
      "Ġcricket": 6435,
      "imb": 6436,
      "Ġremote": 6437,
      "Ġfriendly": 6438,
      "Ġcampaign": 6439,
      "rone": 6440,
      "Ġà¤ħà¤µà¤ľ": 6441,
      "Ġassociate": 6442,
      "ĠKerala": 6443,
      "Ġcompletely": 6444,
      "eve": 6445,
      "mi": 6446,
      "Ġà¤ħà¤¸à¤°": 6447,
      "omy": 6448,
      "Ġeast": 6449,
      "ĠAT": 6450,
      "ĠIran": 6451,
      "à¤Ĩà¤®": 6452,
      "enses": 6453,
      "Ġlatter": 6454,
      "ĠKnowing": 6455,
      "Description": 6456,
      "Ġdim": 6457,
      "Ġvital": 6458,
      "Ġult": 6459,
      "Ġà¤ªà¤¹à¤¨": 6460,
      "icense": 6461,
      "Ġjoined": 6462,
      "ĠST": 6463,
      "Ġ2010": 6464,
      "nel": 6465,
      "prise": 6466,
      "ompense": 6467,
      "ĠAmb": 6468,
      "force": 6469,
      "Ġà¤¸à¤®à¤Ĺ": 6470,
      "Ġfollows": 6471,
      "Ġà¤«à¤°à¤µà¤°": 6472,
      "à¤¤à¤ķà¤°": 6473,
      "Ġreality": 6474,
      "roll": 6475,
      "Ġgoal": 6476,
      "Ġtruthful": 6477,
      "ĠSatan": 6478,
      "Ġà¤ļà¤Ł": 6479,
      "Ġstead": 6480,
      "Ġpartner": 6481,
      "Did": 6482,
      "lies": 6483,
      "utions": 6484,
      "Ġsuffer": 6485,
      "ux": 6486,
      "asi": 6487,
      "Ġyield": 6488,
      "Ġfellow": 6489,
      "Ġtidings": 6490,
      "à¤¨à¤·": 6491,
      "à¤¯à¤¬": 6492,
      "arian": 6493,
      "Ġsubmit": 6494,
      "Ġkeeping": 6495,
      "aneous": 6496,
      "arant": 6497,
      "Ġauthorities": 6498,
      "Ġà¤ªà¤²à¤Ł": 6499,
      "ĠHimal": 6500,
      "Ġminor": 6501,
      "oti": 6502,
      "à¤°à¤ķà¤¤": 6503,
      "Ġseason": 6504,
      "Ġpressure": 6505,
      "Ġà¤¬à¤Łà¤¨": 6506,
      "Ġimpos": 6507,
      "dule": 6508,
      "Ġroot": 6509,
      "VD": 6510,
      "Ġseeking": 6511,
      "à¤Ńà¤²": 6512,
      "ĠExcell": 6513,
      "respond": 6514,
      "hern": 6515,
      "venue": 6516,
      "abilities": 6517,
      "à¤ľà¤¨à¤¨": 6518,
      "Ġappointment": 6519,
      "ĠHome": 6520,
      "Ġcarrying": 6521,
      "Ġmobile": 6522,
      "Ġflag": 6523,
      "Ġhighly": 6524,
      "Ġà¥«": 6525,
      "Though": 6526,
      "Ġrapid": 6527,
      "Ġsought": 6528,
      "ĠPra": 6529,
      "Ġjuris": 6530,
      "aying": 6531,
      "Ġapproved": 6532,
      "à¤īà¤¨à¤®": 6533,
      "2013": 6534,
      "Ġmeant": 6535,
      "Ġregional": 6536,
      "CE": 6537,
      "Ġimpl": 6538,
      "197": 6539,
      "Ġcash": 6540,
      "imately": 6541,
      "ronic": 6542,
      "Ġindividuals": 6543,
      "Ġdiseases": 6544,
      "Ġcritic": 6545,
      "Ġfresh": 6546,
      "Ġnamely": 6547,
      "Ġwonder": 6548,
      "Ġdry": 6549,
      "Ġhind": 6550,
      "Ġassigned": 6551,
      "Ġdegree": 6552,
      "Ġgains": 6553,
      "ĠWind": 6554,
      "Ġbutton": 6555,
      "Ġleadership": 6556,
      "Ġprimary": 6557,
      "à¤¨à¤¶": 6558,
      "cean": 6559,
      "Ġà¤ıà¤ķà¤²": 6560,
      "writ": 6561,
      "Ġarrest": 6562,
      "ricts": 6563,
      "Ġgrad": 6564,
      "ĠOrgan": 6565,
      "atab": 6566,
      "ĠFolder": 6567,
      "urate": 6568,
      "Ġgenerations": 6569,
      "Trans": 6570,
      "Ġminimum": 6571,
      "Ġmaterials": 6572,
      "Ġà¤¬à¤ķ": 6573,
      "ĠExchange": 6574,
      "Ġauthent": 6575,
      "alted": 6576,
      "Ġnine": 6577,
      "Ġcolour": 6578,
      "Ġbur": 6579,
      "istant": 6580,
      "Ġglad": 6581,
      "Ġsituated": 6582,
      "Ġtonnes": 6583,
      "Ġdialog": 6584,
      "Ġacademic": 6585,
      ">>": 6586,
      "rat": 6587,
      "Ġinher": 6588,
      "uta": 6589,
      "ams": 6590,
      "ĠMission": 6591,
      "Ġencoura": 6592,
      "Act": 6593,
      "Ġbed": 6594,
      "Ġfilled": 6595,
      "Ġà¤ıà¤ĸ": 6596,
      "à¤ªà¤°à¤¸": 6597,
      "Ġdistingu": 6598,
      "ARD": 6599,
      "à¤¸à¤¬à¤¸": 6600,
      "Ġsections": 6601,
      "Ġà¤¬à¤ļà¤¤": 6602,
      "Ġ187": 6603,
      "Ġorganization": 6604,
      "Ġmoral": 6605,
      "Ġaltern": 6606,
      "ĠChildren": 6607,
      "ĠSection": 6608,
      "Ġholding": 6609,
      "Besides": 6610,
      "Ġcourts": 6611,
      "eks": 6612,
      "Ġà¤Ńà¤Łà¤ķ": 6613,
      "elines": 6614,
      "Ġà¤īà¤²à¤Ł": 6615,
      "Ġmicro": 6616,
      "Ġclimate": 6617,
      "Ġpractices": 6618,
      "Ġship": 6619,
      "Ġsand": 6620,
      "ĠUnto": 6621,
      "Ġbuy": 6622,
      "à¤ķà¤®à¤¤": 6623,
      "à¥ģà¤ĥ": 6624,
      "Ġà¤ħà¤¯": 6625,
      "Ġatm": 6626,
      "ensation": 6627,
      "Ġsettings": 6628,
      "Ġturns": 6629,
      "ĠMessage": 6630,
      "ĠAgricult": 6631,
      "ĠRiver": 6632,
      "à¤²à¤Ĺà¤ĩà¤¨": 6633,
      "Yet": 6634,
      "Ġduties": 6635,
      "vention": 6636,
      "Ġurban": 6637,
      "erver": 6638,
      "Ġwest": 6639,
      "Ġmission": 6640,
      "Ġlate": 6641,
      "apital": 6642,
      "Ġprinciples": 6643,
      "mail": 6644,
      "Ġà¤Ĺà¤¦": 6645,
      "ĠJust": 6646,
      "Ġempty": 6647,
      "Ġbattle": 6648,
      "venant": 6649,
      "Ġmatch": 6650,
      "Ġreplied": 6651,
      "ĠServices": 6652,
      "ataka": 6653,
      "heduled": 6654,
      "they": 6655,
      "Ġdisbelieved": 6656,
      "Ġelection": 6657,
      "Ġdivide": 6658,
      "Ġcreating": 6659,
      "Ġfeatures": 6660,
      "Ġà¤¹à¤Łà¤ķà¤°": 6661,
      "Out": 6662,
      "Ġdescription": 6663,
      "fra": 6664,
      "à¤²à¤¦": 6665,
      "Ġwelf": 6666,
      "Ġ188": 6667,
      "Ġmoved": 6668,
      "Ġwelfare": 6669,
      "atform": 6670,
      "Ġnearly": 6671,
      "ĠPower": 6672,
      "Ġprin": 6673,
      "using": 6674,
      "orthern": 6675,
      "Ġà¤ĩà¤¨à¤¸": 6676,
      "HT": 6677,
      "kon": 6678,
      "ilty": 6679,
      "acter": 6680,
      "ondon": 6681,
      "Ġinstalled": 6682,
      "charge": 6683,
      "Since": 6684,
      "Ġcommunities": 6685,
      "Ġboard": 6686,
      "Ġinnovation": 6687,
      "Cent": 6688,
      "Ġlad": 6689,
      "Ġgarden": 6690,
      "Ġprostr": 6691,
      "ERS": 6692,
      "Ġgriev": 6693,
      "Ġpicture": 6694,
      "Ġoath": 6695,
      "Ġassum": 6696,
      "45": 6697,
      "Ġdust": 6698,
      "Ġinitiatives": 6699,
      "à¤Ĺà¤¶": 6700,
      "Ġbodies": 6701,
      "Ġren": 6702,
      "Ġà¤ıà¤¹à¤¸": 6703,
      "rency": 6704,
      "Ġsouls": 6705,
      "Ġmethods": 6706,
      "Ġblessings": 6707,
      "Ġexcellent": 6708,
      "isher": 6709,
      "Ġeveryone": 6710,
      "ĠRama": 6711,
      "comm": 6712,
      "achal": 6713,
      "Ġprofits": 6714,
      "Ġchallenges": 6715,
      "HA": 6716,
      "bal": 6717,
      "à¤¨à¤Ĺà¤°": 6718,
      "ÂµÃł": 6719,
      "thern": 6720,
      "Ġrelief": 6721,
      "ĠMahatma": 6722,
      "Ġplanning": 6723,
      "ĠBas": 6724,
      "Ġexcess": 6725,
      "Among": 6726,
      "Ġcold": 6727,
      "Ġheed": 6728,
      "Ġactual": 6729,
      "Ġpositive": 6730,
      "Â¤Â¦": 6731,
      "Ġresolution": 6732,
      "ancing": 6733,
      "Ġgrand": 6734,
      "Ġdrawn": 6735,
      "Ġcrim": 6736,
      "oral": 6737,
      "Ġunf": 6738,
      "Ġagreed": 6739,
      "Ġ02": 6740,
      "Ġdemon": 6741,
      "Ġpleased": 6742,
      "Both": 6743,
      "Ġaid": 6744,
      "Ġinner": 6745,
      "izations": 6746,
      "ĠChar": 6747,
      "Ġforbidden": 6748,
      "Ġbeings": 6749,
      "Ġreleased": 6750,
      "icient": 6751,
      "ster": 6752,
      "olars": 6753,
      "Ġprepar": 6754,
      "ĠAre": 6755,
      "ander": 6756,
      "ĠBengali": 6757,
      "uild": 6758,
      "Ġadequ": 6759,
      "iciency": 6760,
      "atus": 6761,
      "Ġneck": 6762,
      "Ġpassing": 6763,
      "info": 6764,
      "usiness": 6765,
      "ĠVis": 6766,
      "Ġestim": 6767,
      "Ġhop": 6768,
      "Ġcongrat": 6769,
      "Ġsubjects": 6770,
      "inated": 6771,
      "à¤²à¤¹": 6772,
      "Ġsources": 6773,
      "Ġfish": 6774,
      "Ġpollution": 6775,
      "Ġà¤°à¤¨": 6776,
      "Ġfell": 6777,
      "Ġmerc": 6778,
      "what": 6779,
      "Remove": 6780,
      "sych": 6781,
      "Ġdispute": 6782,
      "May": 6783,
      "Ġà¤µà¤°à¤¨": 6784,
      "Ġsett": 6785,
      "Ġundertaking": 6786,
      "Ġprices": 6787,
      "Ġà¤ħà¤µà¤¤à¤°": 6788,
      "Ġaccomp": 6789,
      "Ġentitled": 6790,
      "Ġlearned": 6791,
      "his": 6792,
      "Ġrequirements": 6793,
      "iy": 6794,
      "UL": 6795,
      "Ġfat": 6796,
      "diction": 6797,
      "Ġà¤īà¤ªà¤ľ": 6798,
      "Ġruns": 6799,
      "à¤¸à¤ķà¤°": 6800,
      "iring": 6801,
      "ertificate": 6802,
      "Ġlibrary": 6803,
      "Ġmir": 6804,
      "Ġproved": 6805,
      "Ġreturns": 6806,
      "when": 6807,
      "ĠMo": 6808,
      "Ġvolunt": 6809,
      "isms": 6810,
      "Gu": 6811,
      "Ġmist": 6812,
      "Ġà¤ļà¤®": 6813,
      "35": 6814,
      "Ġnewsp": 6815,
      "Â¤Âı": 6816,
      "ĠAnn": 6817,
      "een": 6818,
      "Ġchanging": 6819,
      "ĠGandhiji": 6820,
      "Ġaspects": 6821,
      "Bh": 6822,
      "Ġ00": 6823,
      "Ġdaughter": 6824,
      "rench": 6825,
      "valid": 6826,
      "40": 6827,
      "Ġsubmitted": 6828,
      "Ġmyself": 6829,
      "198": 6830,
      "Ġcand": 6831,
      "Ġinteresting": 6832,
      "Ġbreed": 6833,
      "Ġcook": 6834,
      "Ġhousehold": 6835,
      "Ġ()": 6836,
      "ĠRed": 6837,
      "Ġperformed": 6838,
      "Ġdebt": 6839,
      "Ġupper": 6840,
      "Ġstring": 6841,
      "ĠNepal": 6842,
      "will": 6843,
      "People": 6844,
      "ĠPath": 6845,
      "Ġà¤īà¤ªà¤¦": 6846,
      "Ġwherein": 6847,
      "Ġinspired": 6848,
      "RE": 6849,
      "Ġiron": 6850,
      "à¥Ī:": 6851,
      "Ġang": 6852,
      "abinet": 6853,
      "ĠKarn": 6854,
      "Ġrecently": 6855,
      "Ġà¤īà¤łà¤¤": 6856,
      "Ġbackground": 6857,
      "tenance": 6858,
      "Ġteaching": 6859,
      "Ġcave": 6860,
      "Ġà¤īà¤ªà¤ĸ": 6861,
      "Ġyourself": 6862,
      "Ġburden": 6863,
      "erate": 6864,
      "ica": 6865,
      "Ġà¤Ńà¤¡": 6866,
      "ĠTem": 6867,
      "Ġsustain": 6868,
      "ores": 6869,
      "ĠNar": 6870,
      "Laughter": 6871,
      "eace": 6872,
      "enture": 6873,
      "Ġdefence": 6874,
      "Ġcat": 6875,
      "Ġexact": 6876,
      "Ġbranch": 6877,
      "ohn": 6878,
      "Ġreforms": 6879,
      "Ġtitle": 6880,
      "Ġincident": 6881,
      "Ġcorrespond": 6882,
      "Ġsurv": 6883,
      "Ġchallenge": 6884,
      "dess": 6885,
      "Ġcoal": 6886,
      "Ġconfident": 6887,
      "astic": 6888,
      "Ġdiss": 6889,
      "grim": 6890,
      "Ġload": 6891,
      "Ġfacility": 6892,
      "BI": 6893,
      "à¤ľà¤Ń": 6894,
      "Ġlest": 6895,
      "Ġdisput": 6896,
      "Ġusers": 6897,
      "ĠThose": 6898,
      "Ġpolitics": 6899,
      "Ġuniversal": 6900,
      "29": 6901,
      "Ġnotification": 6902,
      "ĠThese": 6903,
      "Ġthank": 6904,
      "Ġfundamental": 6905,
      "Ġresource": 6906,
      "overed": 6907,
      "ributed": 6908,
      "igible": 6909,
      "Ġpoem": 6910,
      "Ġrecompense": 6911,
      "Ġguilty": 6912,
      "Ġji": 6913,
      "Ġsubstant": 6914,
      "OS": 6915,
      "Ġcaste": 6916,
      "Ġshared": 6917,
      "Ġconsists": 6918,
      "ĠThus": 6919,
      "Ġlatest": 6920,
      "Ġintellectual": 6921,
      "Ġhttp": 6922,
      "OC": 6923,
      "Ġalthough": 6924,
      "Â¤Âľ": 6925,
      "ifications": 6926,
      "Ġcru": 6927,
      "Send": 6928,
      "ued": 6929,
      "Ġthereby": 6930,
      "à¤ªà¤£à¤¨": 6931,
      "Ġban": 6932,
      "Ġhair": 6933,
      "ocol": 6934,
      "ĠParty": 6935,
      "rical": 6936,
      "Ġencourage": 6937,
      "Ġestablishment": 6938,
      "ĠDivision": 6939,
      "Ġvictory": 6940,
      "Ġgirl": 6941,
      "asm": 6942,
      "etro": 6943,
      "rome": 6944,
      "oad": 6945,
      "Ġtiss": 6946,
      "à¤ķà¤¬": 6947,
      "Ġà¤®à¤£": 6948,
      "Ġà¤ĸà¤¨": 6949,
      "Ġcovenant": 6950,
      "Ġletters": 6951,
      "tion": 6952,
      "Ġselection": 6953,
      "Ġgrass": 6954,
      "Ġà¤®à¤ļ": 6955,
      "Ġelected": 6956,
      "Ġà¤ļà¤¤": 6957,
      "ĠIP": 6958,
      "Ġplays": 6959,
      "because": 6960,
      "aram": 6961,
      "Ġ1992": 6962,
      "Ġwrongdo": 6963,
      "bell": 6964,
      "Ġdelivery": 6965,
      "ris": 6966,
      "à¤¸à¤µà¤°": 6967,
      "Ġhide": 6968,
      "Ġsuitable": 6969,
      "ĠDi": 6970,
      "Ġtransform": 6971,
      "Ġinternal": 6972,
      "Ġorders": 6973,
      "Ġdivision": 6974,
      "Cal": 6975,
      "Ġcompr": 6976,
      "Ġeditor": 6977,
      "Ġtab": 6978,
      "Ġutter": 6979,
      "Ġ08": 6980,
      "Ġdestination": 6981,
      "ĠCompany": 6982,
      "à¤¤à¤Ĺ": 6983,
      "Ġà¤ľà¤ľ": 6984,
      "Ġcance": 6985,
      "Delete": 6986,
      "Ġsacrifice": 6987,
      "Ġappreci": 6988,
      "Over": 6989,
      "Â¼": 6990,
      "Ġweeks": 6991,
      "ĠEmp": 6992,
      "Â¤ÂĹ": 6993,
      "Ġreply": 6994,
      "Ġreduce": 6995,
      "ĠProgramme": 6996,
      "Ġ1950": 6997,
      "ĠCollege": 6998,
      "ottom": 6999,
      "vision": 7000,
      "idge": 7001,
      "à¤Īà¤¯": 7002,
      "Ġminutes": 7003,
      "Ġactions": 7004,
      "Ġà¤¬à¤¦à¤²à¤¤": 7005,
      "Ġà¥ª": 7006,
      "Search": 7007,
      "orial": 7008,
      "Ġbelieving": 7009,
      "Ġà¥¬": 7010,
      "Ġachieved": 7011,
      "Ġprosperity": 7012,
      "Ġsick": 7013,
      "rief": 7014,
      "mn": 7015,
      "Ġtheme": 7016,
      "Ġreceipt": 7017,
      "Ġofficials": 7018,
      "Ġic": 7019,
      "stitu": 7020,
      "ĠTribunal": 7021,
      "Up": 7022,
      "Ġà¤ľà¤¤": 7023,
      "ĠSal": 7024,
      "à¤ĩà¤°": 7025,
      "Ġà¤®à¤¤à¤¦": 7026,
      "Ġlimits": 7027,
      "ients": 7028,
      "othing": 7029,
      "Ġinstance": 7030,
      "Ġhistorical": 7031,
      "ollow": 7032,
      "Ġtong": 7033,
      "à¤£à¤¸": 7034,
      "ĠGoogle": 7035,
      "Ġcritical": 7036,
      "Ġanti": 7037,
      "à¤ģ,": 7038,
      "ĠGuru": 7039,
      "Ġfoundation": 7040,
      "Ġà¤µà¤Ĺ": 7041,
      "ester": 7042,
      "seen": 7043,
      "à¤°à¤¹à¤µ": 7044,
      "Ġsacred": 7045,
      "ĠRuss": 7046,
      "Ġoptions": 7047,
      "Ġmort": 7048,
      "odes": 7049,
      "istance": 7050,
      "Â¤Â¡": 7051,
      "Ġ1998": 7052,
      "Ġtreated": 7053,
      "Ġintegral": 7054,
      "ishnu": 7055,
      "US": 7056,
      "Ġstood": 7057,
      "Ġ1948": 7058,
      "Ġdarkness": 7059,
      "jection": 7060,
      "ront": 7061,
      "Ġnut": 7062,
      "ĠPan": 7063,
      "Ġphase": 7064,
      "Ġahead": 7065,
      "ustral": 7066,
      "Ġconflict": 7067,
      "ĠGreat": 7068,
      "ĠNob": 7069,
      "à¤°à¤®à¤¶": 7070,
      "oseph": 7071,
      "Ġmanufacture": 7072,
      "lal": 7073,
      "isition": 7074,
      "ĠQur": 7075,
      "'re": 7076,
      "Ġtrave": 7077,
      "iant": 7078,
      "ayer": 7079,
      "à¤¯à¤®à¤¨": 7080,
      "rible": 7081,
      "Sy": 7082,
      "comp": 7083,
      "Ġà¤Ĩà¤°à¤ķ": 7084,
      "ĠPer": 7085,
      "ĠRail": 7086,
      "ords": 7087,
      "itt": 7088,
      "Ġà¤Ńà¤°à¤¨": 7089,
      "Ġplatform": 7090,
      "Ġlooks": 7091,
      "ĠAssam": 7092,
      "Ġfighting": 7093,
      "Ġfailure": 7094,
      "ĠAuthority": 7095,
      "MP": 7096,
      "Ġwild": 7097,
      "Ġcollabor": 7098,
      "Ġseized": 7099,
      "Ġ44": 7100,
      "ĠBuddha": 7101,
      "Ġtend": 7102,
      "Ġrecorded": 7103,
      "ĠEnvironment": 7104,
      "à¤Ĩà¤¦": 7105,
      "Ġ37": 7106,
      "\"%": 7107,
      "ĠPark": 7108,
      "ittees": 7109,
      "IF": 7110,
      "196": 7111,
      "Ġparticipation": 7112,
      "bed": 7113,
      "Ġentreprene": 7114,
      "Ġgreetings": 7115,
      "atur": 7116,
      "Ġveh": 7117,
      ")...": 7118,
      "à¤¨à¤ı": 7119,
      "Ġà¤¸à¤¸": 7120,
      "abric": 7121,
      "Ġreports": 7122,
      "Ġdiscussion": 7123,
      "oration": 7124,
      "Ġdidn": 7125,
      "ingly": 7126,
      "Ġproport": 7127,
      "Ġjinn": 7128,
      "Ġwronged": 7129,
      "Ġproceedings": 7130,
      "iders": 7131,
      "Ġcerem": 7132,
      "had": 7133,
      "apa": 7134,
      "rue": 7135,
      "Ġagencies": 7136,
      "Raj": 7137,
      "eav": 7138,
      "à¥ĭ;": 7139,
      "Ġà¤ĸà¤ľ": 7140,
      "ĠIndepend": 7141,
      "Ġcontaining": 7142,
      "Ġchannel": 7143,
      "ghanistan": 7144,
      "Moses": 7145,
      "à¤¨à¤µà¤¤": 7146,
      "otional": 7147,
      "Ġseeing": 7148,
      "Ġcharged": 7149,
      "Ġsuffering": 7150,
      "Ġwaiting": 7151,
      "Ġà¤īà¤Ńà¤°": 7152,
      "ĠMary": 7153,
      "ammed": 7154,
      "Ġwriter": 7155,
      "à¤¸à¤Ł": 7156,
      "à¤£à¤µ": 7157,
      "à¤«à¤²à¤¤": 7158,
      "ĠHour": 7159,
      "Ġability": 7160,
      "ovind": 7161,
      "Ġnuclear": 7162,
      "Ġmal": 7163,
      "gypt": 7164,
      "going": 7165,
      "Ġscientists": 7166,
      "Copy": 7167,
      "Ġhero": 7168,
      "Ġrelative": 7169,
      "Ġeffects": 7170,
      "Ġmountain": 7171,
      "/-": 7172,
      "General": 7173,
      "time": 7174,
      "Ġfollowers": 7175,
      "Import": 7176,
      "ĠAddress": 7177,
      "âĺ»âĺ»": 7178,
      "inger": 7179,
      "Ġdrop": 7180,
      "ĠPanch": 7181,
      "Ġfactors": 7182,
      "Ġprinciple": 7183,
      "Ġadvantage": 7184,
      "Ġchemical": 7185,
      "Ġ2018": 7186,
      "à¤¯à¤Łà¤ķ": 7187,
      "à¤¹à¤Ĺ": 7188,
      "à¤¼,": 7189,
      "Ġgovernance": 7190,
      "swe": 7191,
      "Ġarm": 7192,
      "Ġ48": 7193,
      "Ġaudio": 7194,
      "Ġreminder": 7195,
      "Ġast": 7196,
      "otic": 7197,
      "à¥Ī?\"": 7198,
      "ĠAff": 7199,
      "Ġfigures": 7200,
      "ection": 7201,
      "astern": 7202,
      "ĠWith": 7203,
      "Ġhypoc": 7204,
      "Check": 7205,
      "Ġpi": 7206,
      "Ðµ": 7207,
      "âĢĿ.": 7208,
      "Ġannounced": 7209,
      "Ġà¤«à¤ľ": 7210,
      "Ġattached": 7211,
      "Ġdoesn": 7212,
      "Ġextension": 7213,
      "Ġsmaller": 7214,
      "Ġclasses": 7215,
      "Ġà¤ľà¤Ĺà¤¤": 7216,
      "ĠMa": 7217,
      "Ġenabled": 7218,
      "Ġwhereas": 7219,
      "pta": 7220,
      "apur": 7221,
      "Ġdecisions": 7222,
      "Ġflu": 7223,
      "Ġserved": 7224,
      "Ġforever": 7225,
      "Ġfolders": 7226,
      "fast": 7227,
      "pel": 7228,
      "Ġwitnesses": 7229,
      "Ġdouble": 7230,
      "Ġcentres": 7231,
      "à¤¼à¤¾)": 7232,
      "Ġstudent": 7233,
      "clause": 7234,
      "Speaking": 7235,
      "ipl": 7236,
      "Ġà¤Łà¤°": 7237,
      "ubs": 7238,
      "Ġvisible": 7239,
      "Ġvolume": 7240,
      "TH": 7241,
      "lar": 7242,
      "ifies": 7243,
      "Ġconstituted": 7244,
      "Ġobvious": 7245,
      "Ġvisited": 7246,
      "ĠRajya": 7247,
      "elp": 7248,
      "ĠStand": 7249,
      "Ġinsurance": 7250,
      "Ġà¤Ĺà¤¨": 7251,
      "Ġscholars": 7252,
      "Ġjurisdiction": 7253,
      "Ġadult": 7254,
      "Ġdecide": 7255,
      "Ġbestowed": 7256,
      "Ġapproval": 7257,
      "Ġpiece": 7258,
      "Ġ`": 7259,
      "edia": 7260,
      "atabase": 7261,
      "Mah": 7262,
      "hat": 7263,
      "house": 7264,
      "esty": 7265,
      "Ġpreced": 7266,
      "atience": 7267,
      "Ġbecoming": 7268,
      "à¥Ĥà¤Ĥ,": 7269,
      "Ġappears": 7270,
      "Ġà¤¬à¤ļà¤¨": 7271,
      "Ġstar": 7272,
      "Ġleaf": 7273,
      "Ġclick": 7274,
      "ĠInternet": 7275,
      "Ġabsolute": 7276,
      "Ġdeposit": 7277,
      "à¤¯à¤ķà¤°": 7278,
      "ĠBC": 7279,
      "Ġà¤²à¤Ĺà¤¨": 7280,
      "Ġconcent": 7281,
      "Ġshowed": 7282,
      "Ġplugin": 7283,
      "Ġsupreme": 7284,
      "alg": 7285,
      "Ġplaying": 7286,
      "Ġà¤¬à¤®": 7287,
      "urities": 7288,
      "Ġpriority": 7289,
      "à¤ĸà¤¡": 7290,
      "plit": 7291,
      "Ġcenturies": 7292,
      "Ġpublication": 7293,
      "Ġregistration": 7294,
      "Ġcounter": 7295,
      "à¤¸à¤ªà¤°": 7296,
      "à¥Īà¤Ĥ:": 7297,
      "ĠHealth": 7298,
      "ibilities": 7299,
      "Ġemer": 7300,
      "Ġrob": 7301,
      "Asia": 7302,
      "Ġpromotion": 7303,
      "Ġà¤ħà¤µà¤°": 7304,
      "Ġuses": 7305,
      "Ġpetitioner": 7306,
      "Ġà¤ªà¤°à¤¤": 7307,
      "place": 7308,
      "Ġsolar": 7309,
      "Ġtemperature": 7310,
      "Ġà¤ķà¤·": 7311,
      "Ġproposed": 7312,
      "ĠLondon": 7313,
      "Ġprime": 7314,
      "Ġscholar": 7315,
      "Ġprivile": 7316,
      "Dep": 7317,
      "Ġwestern": 7318,
      "Ġgar": 7319,
      "ĠSocial": 7320,
      "ĠLast": 7321,
      "Ġsubsequ": 7322,
      "Ġ150": 7323,
      "Ġawareness": 7324,
      "Ġmanufacturing": 7325,
      "Ġgrown": 7326,
      "umer": 7327,
      "ĠAndhra": 7328,
      "oken": 7329,
      "Ġ300": 7330,
      "Another": 7331,
      "Ġmarked": 7332,
      "off": 7333,
      "aced": 7334,
      "ĠGovernments": 7335,
      "Ġordinary": 7336,
      "Ġsanction": 7337,
      "NO": 7338,
      "icious": 7339,
      "there": 7340,
      "ammu": 7341,
      "Ġdelight": 7342,
      "Ġà¤¨à¤ķà¤¦": 7343,
      "how": 7344,
      "anj": 7345,
      "ĠMaj": 7346,
      "Ġdelete": 7347,
      "à¤¦à¤¨à¤¶": 7348,
      "Ġaccident": 7349,
      "Ġsigned": 7350,
      "Ġfinally": 7351,
      "ĠScripture": 7352,
      "Each": 7353,
      "à¤¶à¤ĸ": 7354,
      "Mus": 7355,
      "ourse": 7356,
      "Ġadmon": 7357,
      "Also": 7358,
      "Ġpurchase": 7359,
      "Ġà¤ħà¤¹à¤²": 7360,
      "Ġà¤°à¤¤": 7361,
      "Ġà¤ĸà¤£": 7362,
      "Two": 7363,
      "gin": 7364,
      "Ġrequires": 7365,
      "Ġequipment": 7366,
      "Ġatmosphere": 7367,
      "ĠSir": 7368,
      "Inst": 7369,
      "Ġdecades": 7370,
      "Ġexplo": 7371,
      "Gener": 7372,
      "oman": 7373,
      "Ġweather": 7374,
      "Ġkil": 7375,
      "Ġhealthy": 7376,
      "ĠBrahm": 7377,
      "Ġmanager": 7378,
      "Ġinstruments": 7379,
      "claim": 7380,
      "Ġbringing": 7381,
      "39": 7382,
      "isations": 7383,
      "Ġcompared": 7384,
      "arya": 7385,
      "Ġglor": 7386,
      "ĠPM": 7387,
      "à¤Ĩà¤²": 7388,
      "Ġhelps": 7389,
      "Ġrates": 7390,
      "ormal": 7391,
      "Ġà¤Ķà¤ľ": 7392,
      "Ġbillion": 7393,
      "Ġobtained": 7394,
      "NU": 7395,
      "Ġdoctor": 7396,
      "Ġ34": 7397,
      "phant": 7398,
      "inese": 7399,
      "Ġexamples": 7400,
      "Ġà¤¸à¤ªà¤¨": 7401,
      "Ġweap": 7402,
      "Ġsus": 7403,
      "Ġrecords": 7404,
      "Fin": 7405,
      "bre": 7406,
      "ĠMighty": 7407,
      "ĠGardens": 7408,
      "LE": 7409,
      "à¥ĭà¤Ĥ-": 7410,
      "ĠSuch": 7411,
      "2019": 7412,
      "Ġshowing": 7413,
      "Ġexamination": 7414,
      "Ġdemocratic": 7415,
      "rehensive": 7416,
      "Ġà¤ªà¤°à¤µ": 7417,
      "Ġstruct": 7418,
      "Ġhabit": 7419,
      "Ġdamage": 7420,
      "à¥ĩà¤Ĥ-": 7421,
      "à¤Łà¤¸": 7422,
      "ĠMag": 7423,
      "Ġsuccessfully": 7424,
      "Af": 7425,
      "Ġthousands": 7426,
      "Ġheat": 7427,
      "oples": 7428,
      "Ġà¤¸à¤¹à¤Ń": 7429,
      "Ġthanks": 7430,
      "Ġobjects": 7431,
      "Ġdistinct": 7432,
      "Ġelectricity": 7433,
      "ĠSociety": 7434,
      "Dr": 7435,
      "Ġ(.": 7436,
      "ouch": 7437,
      "alle": 7438,
      "à¤ħà¤ªà¤°": 7439,
      "Ġendeav": 7440,
      "Ġdrugs": 7441,
      "ĠLibrary": 7442,
      "Hindi": 7443,
      "AME": 7444,
      "ployment": 7445,
      "Ġdign": 7446,
      "ithm": 7447,
      "Ġsitting": 7448,
      "Ġreplace": 7449,
      "quest": 7450,
      "eries": 7451,
      "Ġprose": 7452,
      "redit": 7453,
      "Ġcompar": 7454,
      "Ġefficient": 7455,
      "Ġà¤Ĺà¤¡": 7456,
      "Ġplot": 7457,
      "ulating": 7458,
      "erves": 7459,
      "Ġà¤¦à¤°à¤¬": 7460,
      "Ġregister": 7461,
      "ĠYoga": 7462,
      "ĠOfficial": 7463,
      ",%": 7464,
      "Ġadopt": 7465,
      "Ġapplied": 7466,
      "Ġhappiness": 7467,
      "Default": 7468,
      "Had": 7469,
      "ĠKumar": 7470,
      "Ġorganised": 7471,
      "Ġdelay": 7472,
      "aughters": 7473,
      "Ġcommitment": 7474,
      "à¤į": 7475,
      "ila": 7476,
      "endment": 7477,
      "Ġstands": 7478,
      "Ġappeared": 7479,
      "ĠBenef": 7480,
      "ĠJustice": 7481,
      "à¤ľà¤¦": 7482,
      "Ġcommanded": 7483,
      "Ġburning": 7484,
      "king": 7485,
      "Ġfabric": 7486,
      "à¤ĺà¤ķ": 7487,
      "Ġsole": 7488,
      "Ġspoke": 7489,
      "luding": 7490,
      "Before": 7491,
      "piration": 7492,
      "ĠKovind": 7493,
      "Ġcontacts": 7494,
      "Ġuniversities": 7495,
      "ĠRules": 7496,
      "à¤µà¤°à¤ķ": 7497,
      "ĠSum": 7498,
      "Ġsugar": 7499,
      "Ġunable": 7500,
      "Ġmonitor": 7501,
      "ĠMahabhar": 7502,
      "Ġminds": 7503,
      "Ð°": 7504,
      "Ġband": 7505,
      "raq": 7506,
      "Ġdefend": 7507,
      "Ġbilateral": 7508,
      "Ġmotion": 7509,
      "Ġà¤Ńà¤Ł": 7510,
      "Ġherit": 7511,
      "ĠNav": 7512,
      "ĠMark": 7513,
      "Ġdele": 7514,
      "Ġacquired": 7515,
      "ĠSpeaker": 7516,
      "ĠExcellency": 7517,
      "book": 7518,
      "eep": 7519,
      "à¥ĩ!": 7520,
      "à¤Ĩà¤īà¤Ł": 7521,
      "Ġà¤¬à¤ľà¤Ł": 7522,
      "CA": 7523,
      "Ġhill": 7524,
      "Ġà¤ªà¤°à¤¦": 7525,
      "pective": 7526,
      "wa": 7527,
      "Ġà¤Ĺà¤¢": 7528,
      "pected": 7529,
      "Ġsending": 7530,
      "Ne": 7531,
      "ĠMun": 7532,
      "ĠLim": 7533,
      "Ġsym": 7534,
      "Ġdistricts": 7535,
      "Ġcosts": 7536,
      "31": 7537,
      "erted": 7538,
      "ĠSind": 7539,
      "à¤Ĩà¤¶": 7540,
      "Ġmarried": 7541,
      "PM": 7542,
      "Ġà¤®à¤¸à¤²": 7543,
      "athered": 7544,
      "ĠCode": 7545,
      "à¤ħà¤¶": 7546,
      "eless": 7547,
      "Ġforgiving": 7548,
      "Ġtransferred": 7549,
      "CD": 7550,
      "Ob": 7551,
      "Ġmos": 7552,
      "Ġà¤ıà¤¡": 7553,
      "ĠCivil": 7554,
      "Ġà¤ħà¤¨à¤¨": 7555,
      "Ġfacts": 7556,
      "Ġheritage": 7557,
      "Ġelections": 7558,
      "Display": 7559,
      "olved": 7560,
      "Ġnotes": 7561,
      "antic": 7562,
      "issa": 7563,
      "Ġadministrative": 7564,
      "Ġpermanent": 7565,
      "greg": 7566,
      "à¤¤à¤¯": 7567,
      "enance": 7568,
      "anish": 7569,
      "Ġdaughters": 7570,
      "Ġeld": 7571,
      "ĠRev": 7572,
      "Ġà¤¬à¤¨à¤ķà¤°": 7573,
      "esus": 7574,
      "Ġassured": 7575,
      "Ġrow": 7576,
      "omething": 7577,
      "ĠAsh": 7578,
      "rand": 7579,
      "Ġrecognised": 7580,
      "Ġax": 7581,
      "Ġadequate": 7582,
      "OM": 7583,
      "ĠNadu": 7584,
      "Ġuniversity": 7585,
      "Ġguides": 7586,
      "Ġwarning": 7587,
      "Ġsteel": 7588,
      "Ġliqu": 7589,
      "Ġà¤¶à¤°à¤£": 7590,
      "ĠCommun": 7591,
      "arp": 7592,
      "othe": 7593,
      "ankar": 7594,
      "à¤ľà¤¬à¤ķ": 7595,
      "Shri": 7596,
      "ĠKnower": 7597,
      "à¤²à¤ļà¤¸": 7598,
      "ĠJews": 7599,
      "à¥Ĥ,": 7600,
      "Ġdescend": 7601,
      "Ġà¤¸à¤¤à¤¤": 7602,
      "Ġprofessional": 7603,
      "Ġcourage": 7604,
      "rier": 7605,
      "ansion": 7606,
      "à¤ķà¤¸à¤Ń": 7607,
      "Ġà¤ķà¤¥à¤¨": 7608,
      "Ġcompassion": 7609,
      "Ġbright": 7610,
      "Ġwarner": 7611,
      "ĠPalestin": 7612,
      "Ġà¤Ńà¤°à¤¤": 7613,
      "Ġà¤ļà¤®à¤ķ": 7614,
      "ĠBad": 7615,
      "inity": 7616,
      "omatic": 7617,
      "Ġlock": 7618,
      "Ġà¤¹à¤®à¤ķ": 7619,
      "oser": 7620,
      "ĠVa": 7621,
      "ĠSa": 7622,
      "Ġdear": 7623,
      "plate": 7624,
      "Ġcandid": 7625,
      "Ġà¤¦à¤«": 7626,
      "Ġcoord": 7627,
      "Ġrecon": 7628,
      "à¤²à¤ª": 7629,
      "Ġà¤¨à¤²": 7630,
      "anc": 7631,
      "ĠAD": 7632,
      "Ġabund": 7633,
      "Ġcommittee": 7634,
      "plete": 7635,
      "ĠMinisters": 7636,
      "Ġtheory": 7637,
      "Ġà¤Ĺà¤¹à¤¨": 7638,
      "Ġskills": 7639,
      "Ġà¤¨à¤¤": 7640,
      "state": 7641,
      "Ġà¤ıà¤ª": 7642,
      "Ġorient": 7643,
      "Ġterritory": 7644,
      "Ġà¤ĩà¤¸à¤¨": 7645,
      "ache": 7646,
      "Ġchance": 7647,
      "Ġwalls": 7648,
      "Like": 7649,
      "ishes": 7650,
      "Ġeth": 7651,
      "Ġà¤¬à¤¹à¤¸": 7652,
      "Ġproperly": 7653,
      "Ġfriendship": 7654,
      "Ġthoughts": 7655,
      "Ġmenu": 7656,
      "Ġbranches": 7657,
      "Ġengineering": 7658,
      "à¤¾'": 7659,
      "lets": 7660,
      "essing": 7661,
      "Ġdevotion": 7662,
      "ĠReserve": 7663,
      "Ġconducted": 7664,
      "itual": 7665,
      "à¤ļà¤µ": 7666,
      "Ġrice": 7667,
      "ensions": 7668,
      "ĠTrust": 7669,
      ")à¥¤": 7670,
      "à¤¶à¤²à¤¤": 7671,
      "Ġtoward": 7672,
      "à¤¸à¤®à¤°": 7673,
      "Ġadmit": 7674,
      "Ġescape": 7675,
      "ĠBose": 7676,
      "Ġrecall": 7677,
      "Ġdedicated": 7678,
      "à¤¾âĢĻ": 7679,
      "Ġconference": 7680,
      "inding": 7681,
      "Ġfeature": 7682,
      "last": 7683,
      "ses": 7684,
      "Ġbrain": 7685,
      "Ġpages": 7686,
      "Ġdia": 7687,
      "Ġreported": 7688,
      "Ġlinks": 7689,
      "Ġchoice": 7690,
      "Ġaccused": 7691,
      "iments": 7692,
      "à¤¯à¤ķà¤²": 7693,
      "Ġoffline": 7694,
      "Once": 7695,
      "Ġinitial": 7696,
      "Ġcurrently": 7697,
      "ĠLegislative": 7698,
      "à¤ªà¤¬": 7699,
      "ĠAssoci": 7700,
      "Ġbats": 7701,
      "à¤«à¤¤": 7702,
      "Ġdeleg": 7703,
      "Ġdesert": 7704,
      "Edit": 7705,
      "hance": 7706,
      "oot": 7707,
      "Ġsolution": 7708,
      "Ġstars": 7709,
      "Ġimplemented": 7710,
      "Ġcitizen": 7711,
      "Ġmaintained": 7712,
      "Ġtom": 7713,
      "Ġears": 7714,
      "ĠPrincip": 7715,
      "Ġfaithful": 7716,
      "Ġinterpret": 7717,
      "Ġil": 7718,
      "alid": 7719,
      "Ġarms": 7720,
      "Ġmostly": 7721,
      "Ġorganized": 7722,
      "Ġfault": 7723,
      "Ġdesigned": 7724,
      "Ġhall": 7725,
      "Ġattitude": 7726,
      "Ġwithdraw": 7727,
      "ni": 7728,
      "ranath": 7729,
      "à¤°à¤¬à¤¨": 7730,
      "Ġlegs": 7731,
      "Yes": 7732,
      "jud": 7733,
      "Ġà¤®à¤Ĺ": 7734,
      "à¤ļà¤°à¤£": 7735,
      "Ġà¤Ĭà¤¤à¤ķ": 7736,
      "appe": 7737,
      "195": 7738,
      "Ġcorruption": 7739,
      "Ġstre": 7740,
      "à¤¾à¤ģ)": 7741,
      "Â¤Â«": 7742,
      "Ġmultiple": 7743,
      "Ġà¤ħà¤Ł": 7744,
      "à¤¼à¥ĩ-": 7745,
      "sha": 7746,
      "State": 7747,
      ")?": 7748,
      "ien": 7749,
      "Ġcomfort": 7750,
      "Ġclosed": 7751,
      "Ġdestruction": 7752,
      "Ġlose": 7753,
      "Ġbanking": 7754,
      "holders": 7755,
      "Ev": 7756,
      "sible": 7757,
      "à¤¹à¤ľ": 7758,
      "Ġirr": 7759,
      "Ġfalsehood": 7760,
      "à¤Ĩà¤ĩ": 7761,
      "agh": 7762,
      "anya": 7763,
      "Ġholds": 7764,
      "à¤¬à¤Ĺ": 7765,
      "Ins": 7766,
      "à¤īà¤¨à¤¸": 7767,
      "Ġcurrency": 7768,
      "Ġwww": 7769,
      "Ġfed": 7770,
      "Ġgovernments": 7771,
      "Ġmerciful": 7772,
      "33": 7773,
      "ald": 7774,
      "ĠAffairs": 7775,
      "Ġnoted": 7776,
      "ĠEgypt": 7777,
      "hai": 7778,
      "ĠNare": 7779,
      "Ġunion": 7780,
      "Ġcenter": 7781,
      "Ġaddressed": 7782,
      "Ġpatience": 7783,
      "Ġrent": 7784,
      "ĠFound": 7785,
      "'%": 7786,
      "ĠAli": 7787,
      "Ġ</": 7788,
      "48": 7789,
      "ĠSun": 7790,
      "izes": 7791,
      "Ġà¤Ķà¤ªà¤ļ": 7792,
      "Ġsanct": 7793,
      "Ġsuddenly": 7794,
      "trans": 7795,
      "Ġbrief": 7796,
      "ĠBah": 7797,
      "aints": 7798,
      "Ġcoast": 7799,
      "Ġskill": 7800,
      "Ġobjectives": 7801,
      "Ġsettled": 7802,
      "Ġseemed": 7803,
      "unction": 7804,
      "ĠNag": 7805,
      "Ġwhatsoever": 7806,
      "Ġreckon": 7807,
      "Ġdifferences": 7808,
      "Ġfavor": 7809,
      "Ġflowers": 7810,
      "See": 7811,
      "yl": 7812,
      "ĠFOR": 7813,
      "fraid": 7814,
      "sm": 7815,
      "iced": 7816,
      "Ġindig": 7817,
      "while": 7818,
      "Ġdisk": 7819,
      "Ġpeoples": 7820,
      "Ġà¥§à¥«": 7821,
      "Ġnegative": 7822,
      "abet": 7823,
      "umin": 7824,
      "ĠLanguage": 7825,
      "à¤¯à¤¤à¤¯": 7826,
      "Ġidentified": 7827,
      "DU": 7828,
      "Ġmig": 7829,
      "ĠIraq": 7830,
      "ears": 7831,
      "Ġobst": 7832,
      "Ġguarant": 7833,
      "Ġafford": 7834,
      "aviour": 7835,
      "Mar": 7836,
      "luded": 7837,
      "iversary": 7838,
      "Const": 7839,
      "Ġwelcome": 7840,
      "SP": 7841,
      "Ġafraid": 7842,
      "Ġprincipal": 7843,
      "Ġinitiative": 7844,
      "ping": 7845,
      "Ġbrows": 7846,
      "ceeds": 7847,
      "Ġtechnologies": 7848,
      "hus": 7849,
      "Ġhappens": 7850,
      "ĠReport": 7851,
      "ĠModi": 7852,
      "ĠPost": 7853,
      "ĠHead": 7854,
      "Ġpilgrim": 7855,
      "Cons": 7856,
      "Will": 7857,
      "can": 7858,
      "Ġgathered": 7859,
      "ĠJammu": 7860,
      "Ġfactor": 7861,
      "Ġarrived": 7862,
      "ĠTurk": 7863,
      "Ġrid": 7864,
      "Inc": 7865,
      "Ġconfirm": 7866,
      "Ġenemies": 7867,
      "rd": 7868,
      "à¤ªà¤Łà¤¨": 7869,
      "Ġabode": 7870,
      "Ġattain": 7871,
      "à¤¹à¤²à¤¤": 7872,
      "à¤ĭà¤£": 7873,
      "ola": 7874,
      "Ġroof": 7875,
      "Ġ186": 7876,
      "Ġmarkets": 7877,
      "Ġà¤ħà¤®à¤²": 7878,
      "Ġbul": 7879,
      "Ġment": 7880,
      "Ġà¤Ĺà¤µà¤°": 7881,
      "ĠDas": 7882,
      "Ġritual": 7883,
      "Ġenhan": 7884,
      "Ġsends": 7885,
      "Ġà¤Ĩà¤ļà¤°à¤£": 7886,
      ",'": 7887,
      "ĠâĢĺâĢĺ": 7888,
      "Ġargument": 7889,
      "Ġplans": 7890,
      "Ġà¤ħà¤¸à¤¹": 7891,
      "sl": 7892,
      "Ġsimply": 7893,
      "Ġconstant": 7894,
      "ĠKarnataka": 7895,
      "ĠKab": 7896,
      "Ġ65": 7897,
      "ocument": 7898,
      "Ġinherit": 7899,
      "à¤ķà¤£": 7900,
      "à¤¡à¤ķà¤°": 7901,
      "Ġabide": 7902,
      "awahar": 7903,
      "Ġpoets": 7904,
      "Ġidentity": 7905,
      "Ġproposal": 7906,
      "Mod": 7907,
      "kan": 7908,
      "stood": 7909,
      "Ġamb": 7910,
      "Ġsenior": 7911,
      "otton": 7912,
      "Ġà¤¬à¤¦à¤ķ": 7913,
      "Ġaims": 7914,
      "xx": 7915,
      "à¥Ĥ.": 7916,
      "à¤¶à¤¹à¤°": 7917,
      "ĠKar": 7918,
      "asant": 7919,
      "ĠGov": 7920,
      "Ġmaintenance": 7921,
      "Ġstarting": 7922,
      "ĠMen": 7923,
      "onds": 7924,
      "Back": 7925,
      "Ġhasten": 7926,
      "Ġsyn": 7927,
      "Ġmovements": 7928,
      "Ġentirely": 7929,
      "EP": 7930,
      "à¤°à¤ľà¤¨à¤¨": 7931,
      "Ġreb": 7932,
      "Ġadvanced": 7933,
      "Ġswear": 7934,
      "oz": 7935,
      "ĠMer": 7936,
      "à¤¨à¤ļ": 7937,
      "oles": 7938,
      "ĠArabic": 7939,
      "Ġvir": 7940,
      "Ġà¤Ľà¤ª": 7941,
      "Invalid": 7942,
      "rites": 7943,
      "Ġpsych": 7944,
      "Ġanalysis": 7945,
      "à¤ŀà¤ª": 7946,
      "ĠSubhas": 7947,
      "elve": 7948,
      "Ġà¤°à¤ĸà¤ķà¤°": 7949,
      "icket": 7950,
      "Ġheads": 7951,
      "Ġstrike": 7952,
      "Ġgirls": 7953,
      "alam": 7954,
      "ibly": 7955,
      "acts": 7956,
      "care": 7957,
      "pet": 7958,
      "quiry": 7959,
      "Ġoperating": 7960,
      "Art": 7961,
      "oes": 7962,
      "à¤ķà¤¦": 7963,
      "ĠElect": 7964,
      "Ġfinance": 7965,
      "Ġprocesses": 7966,
      "About": 7967,
      "100": 7968,
      "Ġà¤°à¤£à¤¨": 7969,
      "Ġagency": 7970,
      "Ġà¤¢à¤ķ": 7971,
      "Ġ1991": 7972,
      "Ġbehold": 7973,
      "olkata": 7974,
      "Ġarrog": 7975,
      "Ġblessed": 7976,
      "rafts": 7977,
      "Europe": 7978,
      "aith": 7979,
      "Ġoffices": 7980,
      "NAME": 7981,
      "Ġextremely": 7982,
      "47": 7983,
      "ladesh": 7984,
      "ena": 7985,
      "Ġbounty": 7986,
      "Ġfont": 7987,
      "Ġspot": 7988,
      "Although": 7989,
      "Ġsquared": 7990,
      "ĠImage": 7991,
      "Ġlaunch": 7992,
      "lement": 7993,
      "ĠSelf": 7994,
      "uddin": 7995,
      "Ġarchive": 7996,
      "tes": 7997,
      "oring": 7998,
      "Ġà¤°à¤ļ": 7999,
      "ĠAud": 8000,
      "ĠCON": 8001,
      "ĠDVD": 8002,
      "Ġfee": 8003,
      "Ġlawful": 8004,
      "Ġwage": 8005,
      "iti": 8006,
      "Ġà¤ªà¤°à¤¸à¤¤": 8007,
      "amin": 8008,
      "ĠFirst": 8009,
      "Ġà¤ľà¤¨à¤°à¤²": 8010,
      "Ġopposition": 8011,
      "à¥Ĩ": 8012,
      "à¤µà¤£": 8013,
      "Ġgate": 8014,
      "Ġ-.": 8015,
      "Ġprayers": 8016,
      "Ġeligible": 8017,
      "à¤ĳà¤«": 8018,
      "atar": 8019,
      "ĠForm": 8020,
      "Ġfourth": 8021,
      "Ġfertil": 8022,
      "Ġcateg": 8023,
      "Ġexplain": 8024,
      "à¥Ģ!": 8025,
      "Ġrej": 8026,
      "ĠPen": 8027,
      "Ġcomment": 8028,
      "atio": 8029,
      "ĠSikh": 8030,
      "Ġcontents": 8031,
      "Ġtrain": 8032,
      "Ġrespective": 8033,
      "life": 8034,
      "zz": 8035,
      "ndered": 8036,
      "atre": 8037,
      "atri": 8038,
      "ros": 8039,
      "resents": 8040,
      "ĠOut": 8041,
      "Ġcommission": 8042,
      "Ġlif": 8043,
      "ette": 8044,
      "âĢĿ,": 8045,
      "à¤Ĭà¤ªà¤°": 8046,
      "ĠProte": 8047,
      "Ġmarketing": 8048,
      "DA": 8049,
      "ilm": 8050,
      "iger": 8051,
      "akti": 8052,
      "Ġtasks": 8053,
      "Ġidol": 8054,
      "IG": 8055,
      "ested": 8056,
      "Ġdoll": 8057,
      "Ġincur": 8058,
      "Ġleads": 8059,
      "Ġ1996": 8060,
      "ĠForeign": 8061,
      "organ": 8062,
      "Ġbat": 8063,
      "ĠOb": 8064,
      "avid": 8065,
      "ĠAdv": 8066,
      "75": 8067,
      "othes": 8068,
      "ĠCor": 8069,
      "omever": 8070,
      "Ġ1990": 8071,
      "IST": 8072,
      "ĠMembers": 8073,
      "Ġmedicine": 8074,
      "Ġà¤¬à¤Ł": 8075,
      "Ġbroken": 8076,
      "Ġterrible": 8077,
      ".âĢľ": 8078,
      "Her": 8079,
      "eal": 8080,
      "Ġrecip": 8081,
      "Ġrefused": 8082,
      "Ġoccurred": 8083,
      "Ġarchitecture": 8084,
      "Ġthirty": 8085,
      "Make": 8086,
      "ĠIndependence": 8087,
      "à¤²à¤ľ": 8088,
      "Ġcomposed": 8089,
      "ĠMuse": 8090,
      "à¤ĸà¤£": 8091,
      "Ġequally": 8092,
      "onial": 8093,
      "Ġbes": 8094,
      "Ġdog": 8095,
      "à¤¹à¤°à¤²": 8096,
      "Ġwhenever": 8097,
      "Ġsurre": 8098,
      "Ġjudges": 8099,
      "ĠMand": 8100,
      "ĠFl": 8101,
      "Ġblame": 8102,
      "à¤®à¤¹à¤²": 8103,
      "Ġenvironmental": 8104,
      "36": 8105,
      "Ġà¤Ĩà¤¦à¤¤": 8106,
      "ĠArch": 8107,
      "Ġjournal": 8108,
      "wan": 8109,
      "à¤¹à¤¶": 8110,
      "ĠBy": 8111,
      "ĠDem": 8112,
      "Â¤Â¬": 8113,
      "Ġcapable": 8114,
      "Ġtemporary": 8115,
      "PRO": 8116,
      "ĠDef": 8117,
      "Ġsimpl": 8118,
      "Ġexpert": 8119,
      "ĠJudge": 8120,
      "Ġble": 8121,
      "Ġwilled": 8122,
      "ĠOrissa": 8123,
      "ĠChristian": 8124,
      "Don": 8125,
      "First": 8126,
      "Just": 8127,
      "Mon": 8128,
      "Ġcouncil": 8129,
      ".\"(": 8130,
      "ĠMughal": 8131,
      "Ġnarrow": 8132,
      "Ġoblig": 8133,
      "Ġenhance": 8134,
      "Ġmarry": 8135,
      "Ġfunctioning": 8136,
      "bon": 8137,
      "Ġunknown": 8138,
      "Ġ1997": 8139,
      "Ġdirected": 8140,
      "View": 8141,
      "Ġtools": 8142,
      "iform": 8143,
      "Ġspeaking": 8144,
      "asters": 8145,
      "ĠLab": 8146,
      "Ġrout": 8147,
      "ecut": 8148,
      "Ġera": 8149,
      "Ġimperial": 8150,
      "Ġrace": 8151,
      "ESS": 8152,
      "Net": 8153,
      "Ġthrow": 8154,
      "ĠAut": 8155,
      "anta": 8156,
      "iber": 8157,
      "ĠVishnu": 8158,
      "Ġsubstance": 8159,
      "Ġec": 8160,
      "Similar": 8161,
      "PC": 8162,
      "iya": 8163,
      "à¤ļà¤¤à¤°": 8164,
      "Ġstones": 8165,
      "Ġà¤ĳà¤¡": 8166,
      "Ġforgot": 8167,
      "ĠControl": 8168,
      "derabad": 8169,
      "Ġà¤īà¤ªà¤¹": 8170,
      "ĠWeb": 8171,
      "Ġtransaction": 8172,
      "Ġexpenses": 8173,
      "Ġà¤¨à¤µà¤®": 8174,
      "Ġ1980": 8175,
      "Ġcreative": 8176,
      "Mark": 8177,
      "rator": 8178,
      "à¤¬à¤¢": 8179,
      "à¤ģ.": 8180,
      "ĠHam": 8181,
      "Ġà¤¸à¤°à¤ªà¤°à¤¸": 8182,
      "Ġreligions": 8183,
      "Ġcareer": 8184,
      "Ġcovering": 8185,
      "Ġholy": 8186,
      "Ġsuit": 8187,
      "issions": 8188,
      "Ġformation": 8189,
      "Ġà¤Ńà¤°à¤ª": 8190,
      "2017": 8191,
      "Ġcris": 8192,
      "Ġconfiguration": 8193,
      "Work": 8194,
      "Ġà¤·": 8195,
      "Ġ1000": 8196,
      "raction": 8197,
      "ums": 8198,
      "prises": 8199,
      "Part": 8200,
      "pes": 8201,
      "Ġpu": 8202,
      "Ġsevent": 8203,
      "lude": 8204,
      "Change": 8205,
      "gent": 8206,
      "Ġprove": 8207,
      "ĠNations": 8208,
      "anks": 8209,
      "Ġabsence": 8210,
      "Gl": 8211,
      "Ġà¤ıà¤ķà¤¦à¤®": 8212,
      "Ġgrateful": 8213,
      "fortun": 8214,
      "Ac": 8215,
      "à¤¦à¤¦": 8216,
      "ĠSH": 8217,
      "Ġthereafter": 8218,
      "ĠMiddle": 8219,
      "Ġturning": 8220,
      "Ġundertaken": 8221,
      "Ġfuel": 8222,
      "isted": 8223,
      "active": 8224,
      "Ġconfer": 8225,
      "da": 8226,
      "Ġcrow": 8227,
      "ourable": 8228,
      "Ġtro": 8229,
      "à¤¹à¤¨à¤¤": 8230,
      "Ġinfl": 8231,
      "Ġaccompan": 8232,
      "Ġinhab": 8233,
      "Ġactor": 8234,
      "à¤Ĩà¤Īà¤¸": 8235,
      "Ġà¤®à¤¦à¤¦à¤Ĺ": 8236,
      "Ġbuildings": 8237,
      "ĠNoah": 8238,
      "Ġrailway": 8239,
      "mary": 8240,
      "rack": 8241,
      "Ġalt": 8242,
      "Ġ55": 8243,
      "Ġrepresents": 8244,
      "marks": 8245,
      "Ġeggs": 8246,
      "yal": 8247,
      "hets": 8248,
      "oked": 8249,
      "Ġbelieves": 8250,
      "ftware": 8251,
      "Ġapplicable": 8252,
      "Ġwidth": 8253,
      "room": 8254,
      "Ġformal": 8255,
      "Ġhumanity": 8256,
      "yr": 8257,
      "à¥Ģ'": 8258,
      "irs": 8259,
      "Ġproperties": 8260,
      "brance": 8261,
      "Ġdeeply": 8262,
      "Ġinformed": 8263,
      "gl": 8264,
      "Inter": 8265,
      "pre": 8266,
      "Ġà¤®à¤°à¤¨": 8267,
      "Ġcommunal": 8268,
      "Ġcrores": 8269,
      "dev": 8270,
      "ym": 8271,
      "yas": 8272,
      "à¤¯à¤°à¤¤": 8273,
      "à¤¡à¤¸": 8274,
      "à¤¥à¤¤": 8275,
      "Ġsculpture": 8276,
      "Ġà¤«à¤Ł": 8277,
      "ĠGaz": 8278,
      "ĠFree": 8279,
      "Ġcompensation": 8280,
      "Ġadjust": 8281,
      "anka": 8282,
      "Ġmemo": 8283,
      "asad": 8284,
      "à¤Ńà¤°à¤¤": 8285,
      "osite": 8286,
      "Ġà¤ħà¤µà¤ķ": 8287,
      "Ġdecor": 8288,
      "Ġcool": 8289,
      "Ġbelonging": 8290,
      "Ġimmense": 8291,
      "ĠUrdu": 8292,
      "gor": 8293,
      "Ġmock": 8294,
      "ĠCar": 8295,
      "à¤ħà¤¸à¤²": 8296,
      "acific": 8297,
      "Ġdisg": 8298,
      "Ġà¤ħà¤ªà¤µ": 8299,
      "Ġhit": 8300,
      "Ġexhib": 8301,
      "osers": 8302,
      "pto": 8303,
      "SA": 8304,
      "à¤ļà¤ķà¤°": 8305,
      "ĠTool": 8306,
      "Ġinterested": 8307,
      "Ġdisplayed": 8308,
      "Ġhrs": 8309,
      "Ġà¤«à¤²à¤¸": 8310,
      "Ġexplained": 8311,
      "ĠIb": 8312,
      "Ġaside": 8313,
      "ardar": 8314,
      "Ġpride": 8315,
      "Ġworlds": 8316,
      "FC": 8317,
      "Ġloans": 8318,
      "ĠHTML": 8319,
      "water": 8320,
      "agers": 8321,
      "uality": 8322,
      "oval": 8323,
      "ĠSecurity": 8324,
      "Ġradio": 8325,
      "ĠFoundation": 8326,
      "Ġorganizations": 8327,
      "Ġfelicit": 8328,
      "Ġà¤ħà¤¹à¤®à¤¦": 8329,
      "edd": 8330,
      "ipes": 8331,
      "Ġupgr": 8332,
      "anging": 8333,
      "ĠInter": 8334,
      "olit": 8335,
      "2012": 8336,
      "Ġcategory": 8337,
      "Ġjudgment": 8338,
      "Ġimprovement": 8339,
      "van": 8340,
      "Ð¸": 8341,
      "à¤¯à¤µà¤°": 8342,
      "urved": 8343,
      "Ġpled": 8344,
      "ĠKor": 8345,
      "Ġunderstood": 8346,
      "Ġcommod": 8347,
      "Ġdesktop": 8348,
      "à¤Ĺà¤£à¤ķ": 8349,
      "Ġpenalty": 8350,
      "Ġquickly": 8351,
      "à¤®à¤ķà¤¤": 8352,
      "Ġstick": 8353,
      "operative": 8354,
      "Ġexports": 8355,
      "Ġ09": 8356,
      "ĠArmy": 8357,
      "elievers": 8358,
      "34": 8359,
      "aa": 8360,
      "Ġbottom": 8361,
      "à¤ıà¤Ł": 8362,
      "uter": 8363,
      "owing": 8364,
      "Ġshad": 8365,
      "Ġcalling": 8366,
      "ĠText": 8367,
      "long": 8368,
      "ĠCult": 8369,
      "Ġadmitted": 8370,
      "ART": 8371,
      ".>>": 8372,
      "Ġwhomever": 8373,
      "law": 8374,
      "à¤¯à¤·": 8375,
      "Ġsam": 8376,
      "Ġvig": 8377,
      "Ġsurvey": 8378,
      "Ġinstructions": 8379,
      "Rashtrapati": 8380,
      "inces": 8381,
      "cts": 8382,
      "ĠPass": 8383,
      "ĠTime": 8384,
      "ĠLet": 8385,
      "ogen": 8386,
      "Ġjudicial": 8387,
      "Ġmulti": 8388,
      "Ġsequ": 8389,
      "ĠNAME": 8390,
      "was": 8391,
      "à¤¼à¤Ĥ": 8392,
      "Ġoffers": 8393,
      "Ġfilter": 8394,
      "Ġdigital": 8395,
      "Ġtomorrow": 8396,
      ",(": 8397,
      "à¤¿/": 8398,
      "Ġmov": 8399,
      "ĠSC": 8400,
      "Â¤Â¶": 8401,
      "Ġà¤ĳà¤ªà¤°": 8402,
      "Ġfulfil": 8403,
      "Ġdynam": 8404,
      "eer": 8405,
      "father": 8406,
      "ming": 8407,
      "Ġsees": 8408,
      "Ġuns": 8409,
      "Ġdiscl": 8410,
      "Unknown": 8411,
      "Ġsolid": 8412,
      "Ġdepends": 8413,
      "Prime": 8414,
      "Ġconven": 8415,
      "Ġsoldiers": 8416,
      "Ġcrisis": 8417,
      "Sm": 8418,
      "ÑĤ": 8419,
      "Ġfought": 8420,
      "Ġcouple": 8421,
      "Ġproportion": 8422,
      "dro": 8423,
      "uity": 8424,
      "Ġà¤ĸà¤¬à¤°": 8425,
      "ĠCity": 8426,
      "ĠHon": 8427,
      "à¤°à¤¬à¤²": 8428,
      "Ġwriters": 8429,
      "Ġinitiated": 8430,
      "Ġgrew": 8431,
      "Ġconcl": 8432,
      "Ġcreatures": 8433,
      "ĠGermany": 8434,
      "ĠPersian": 8435,
      "jan": 8436,
      "ĠBan": 8437,
      "ailing": 8438,
      "izont": 8439,
      "Ġimmediate": 8440,
      "uit": 8441,
      "Ġmurd": 8442,
      "ĠJoseph": 8443,
      "Ġrespectively": 8444,
      "Ġreveal": 8445,
      "ĠAdminist": 8446,
      "Ġzero": 8447,
      "Ġcurs": 8448,
      "coming": 8449,
      "32": 8450,
      "anes": 8451,
      "Ġà¤¬à¤°à¤¤": 8452,
      "Ġà¤¦à¤¹": 8453,
      "Ġmel": 8454,
      "Ġhen": 8455,
      "Ġinvited": 8456,
      "Ġends": 8457,
      "ĠFinancial": 8458,
      "Text": 8459,
      "Ġ;(": 8460,
      "ĠSearch": 8461,
      "Ġ38": 8462,
      "Ġarbit": 8463,
      "Ġdisbelief": 8464,
      "-#-#-#-#": 8465,
      "IME": 8466,
      "rum": 8467,
      "à¤²à¤ĺ": 8468,
      "edient": 8469,
      "à¤ıà¤¡": 8470,
      "Ġdeity": 8471,
      "ĠWater": 8472,
      "Ġtwice": 8473,
      "nergy": 8474,
      "Ġpossession": 8475,
      "Ġslight": 8476,
      "Ġdealing": 8477,
      "ĠHouses": 8478,
      "ĠLife": 8479,
      "Ġleaving": 8480,
      "Ġremaining": 8481,
      "conomic": 8482,
      "ĠEngine": 8483,
      "Ġautomatically": 8484,
      "PI": 8485,
      "Ġcow": 8486,
      "Ġborder": 8487,
      "EC": 8488,
      "nov": 8489,
      "Ġà¤ıà¤¹à¤¦": 8490,
      "à¤Ĩà¤ªà¤¨": 8491,
      "Ġves": 8492,
      "unc": 8493,
      "ĠVice": 8494,
      "Ġfulfilled": 8495,
      "Ġcelebrated": 8496,
      "à¤ļà¤²à¤¨": 8497,
      "ĠTour": 8498,
      "Ġrestrict": 8499,
      "ĠAfghanistan": 8500,
      "utt": 8501,
      "eties": 8502,
      "Ġpregn": 8503,
      "Ġ1993": 8504,
      "Prof": 8505,
      "Ġintelligence": 8506,
      "Ġà¤ķà¤£": 8507,
      "ĠAward": 8508,
      "Ġpersonality": 8509,
      "Ġmillions": 8510,
      "Ġtowns": 8511,
      "Ġimpart": 8512,
      "criber": 8513,
      "Ġcontributions": 8514,
      "ĠMohammed": 8515,
      "Mem": 8516,
      "Ġcore": 8517,
      "à¤ĩà¤¬à¤°": 8518,
      "Ġà¤ħà¤«à¤Ĺ": 8519,
      "Ġtribal": 8520,
      "Ġà¤¤à¤ĸ": 8521,
      "illa": 8522,
      "Ġtea": 8523,
      "Ġtourism": 8524,
      "ĠDivine": 8525,
      "à¤¬à¤°à¤¦à¤¸": 8526,
      "EG": 8527,
      "Ġlosers": 8528,
      "ĠTel": 8529,
      "ĠEastern": 8530,
      "Ġà¤¸à¤¹à¤¨": 8531,
      "orthy": 8532,
      "à¤¬à¤¦à¤²": 8533,
      "Ġcontinues": 8534,
      "Ġemployee": 8535,
      "Ġfifty": 8536,
      "Ġcontemporary": 8537,
      "ĠLicense": 8538,
      "Ġà¤ĵà¤¡": 8539,
      "Ġspect": 8540,
      "ĠAlm": 8541,
      "Ġpieces": 8542,
      "à¤Ńà¤¦": 8543,
      "Ġ39": 8544,
      "Ġevolution": 8545,
      "ashing": 8546,
      "Ġhorse": 8547,
      "bra": 8548,
      "uable": 8549,
      "Ġmap": 8550,
      "Ġà¤¬à¤¹à¤ķ": 8551,
      "Ġà¤Ĩà¤ķà¤²à¤¨": 8552,
      "Ġflight": 8553,
      "Ġasking": 8554,
      "Ġdetailed": 8555,
      "ĠDeputy": 8556,
      "à¥¨à¥¦à¥¦": 8557,
      "Ġdrama": 8558,
      "Ġphen": 8559,
      "ĠTer": 8560,
      "Ġouter": 8561,
      "ĠAdam": 8562,
      "Time": 8563,
      "ushed": 8564,
      "ĠKa": 8565,
      "Ġtwelve": 8566,
      "ĠMusa": 8567,
      "Ġtalking": 8568,
      "Ġsatisfied": 8569,
      "ĠKolkata": 8570,
      "Ġ47": 8571,
      "hetic": 8572,
      "Ġillust": 8573,
      "ĠHyderabad": 8574,
      "uted": 8575,
      "andon": 8576,
      "Ġoutstanding": 8577,
      "Ġexpansion": 8578,
      "Ġtranslated": 8579,
      "ĠJudgment": 8580,
      "ĠChristians": 8581,
      "Ġsweet": 8582,
      "ustralia": 8583,
      "Ġ~": 8584,
      "Choose": 8585,
      "Ġvictim": 8586,
      "ĠAssociation": 8587,
      "Ġà¤Ĩà¤ªà¤°": 8588,
      "Ġowner": 8589,
      "Ġdepth": 8590,
      "Ġemployed": 8591,
      "Ġobtain": 8592,
      "à¤¬à¤µ": 8593,
      "asw": 8594,
      "otes": 8595,
      "Ġrising": 8596,
      "Ġhardly": 8597,
      "Ġjudgement": 8598,
      "Ġapostle": 8599,
      "Ġapostles": 8600,
      "Ġneighbour": 8601,
      "Ġdistinguished": 8602,
      "Ġdeleted": 8603,
      "Ġliquid": 8604,
      "38": 8605,
      "lause": 8606,
      "Ġbones": 8607,
      "alog": 8608,
      "Ġrevenue": 8609,
      "oli": 8610,
      "essor": 8611,
      "Ġowners": 8612,
      "Ġglory": 8613,
      "Ġconsumer": 8614,
      "Further": 8615,
      "Nor": 8616,
      "orter": 8617,
      "Ġtrouble": 8618,
      "ensity": 8619,
      "Ġscope": 8620,
      "Ġtransp": 8621,
      "Ġtraditions": 8622,
      "Ġregarded": 8623,
      "Ġlayer": 8624,
      "Ġsuggested": 8625,
      "Ram": 8626,
      "Ġbudget": 8627,
      "osa": 8628,
      "Mess": 8629,
      "SC": 8630,
      "ename": 8631,
      "oding": 8632,
      "à¥īà¤Ĥ": 8633,
      "ĠFort": 8634,
      "Ġà¤®à¤¤à¤Ń": 8635,
      "ĠBabu": 8636,
      "Ġcriminal": 8637,
      "swered": 8638,
      "mic": 8639,
      "Ġà¤ķà¤ļà¤°": 8640,
      "à¤°à¤¦à¤¤": 8641,
      "Ġwherever": 8642,
      "Ġà¥§à¥®": 8643,
      "garh": 8644,
      "ĠMuseum": 8645,
      "Ge": 8646,
      "orge": 8647,
      "Ġorph": 8648,
      "ocks": 8649,
      "Ġgrieve": 8650,
      "Ġà¤ªà¤¥à¤Ń": 8651,
      "Ġestimated": 8652,
      "ĠNarendra": 8653,
      "Ġoverall": 8654,
      "Ġfloor": 8655,
      "ĠApost": 8656,
      "ooth": 8657,
      "rath": 8658,
      "à¤¦à¤¹": 8659,
      "ayment": 8660,
      "olic": 8661,
      "Ġoffering": 8662,
      "Ġblue": 8663,
      "Ġsustenance": 8664,
      "ĠKan": 8665,
      "Ġoffence": 8666,
      "Ġpromoting": 8667,
      "Ġdefinite": 8668,
      "Ġcustomer": 8669,
      "ĠSigns": 8670,
      "des": 8671,
      "à¤ľà¤ªà¤¤": 8672,
      "ĠSte": 8673,
      "Ġbegins": 8674,
      "Ġstayed": 8675,
      "ĠInte": 8676,
      "Char": 8677,
      "Due": 8678,
      "ĠPress": 8679,
      "Ġà¤¦à¤®": 8680,
      "ilter": 8681,
      "à¤īà¤¸à¤®": 8682,
      "Ġindex": 8683,
      "Ġdistributed": 8684,
      "Ġconsiderable": 8685,
      "Ġwrongdoers": 8686,
      "à¤ģà¥¤": 8687,
      "Ġspite": 8688,
      "Ġroads": 8689,
      "à¤ıà¤®à¤Ī": 8690,
      "no": 8691,
      "Ġvide": 8692,
      "inder": 8693,
      "Ġequality": 8694,
      "Ġfacing": 8695,
      "Ġstrive": 8696,
      "ĠTraining": 8697,
      "ĠLimited": 8698,
      "Red": 8699,
      "mits": 8700,
      "rival": 8701,
      "Ġsor": 8702,
      "Ġrenew": 8703,
      "ota": 8704,
      "ĠMount": 8705,
      "odh": 8706,
      "ĠIndiaà¤Ń": 8707,
      "Ġtransactions": 8708,
      "Ġavailability": 8709,
      "ĠCompan": 8710,
      "Ġforests": 8711,
      "Ġrepeated": 8712,
      "Ġconstructed": 8713,
      "rease": 8714,
      "ĠAwards": 8715,
      "asty": 8716,
      "ĠUT": 8717,
      "ĠJag": 8718,
      "Ġsymp": 8719,
      "iciary": 8720,
      "Central": 8721,
      "anas": 8722,
      "ĠAware": 8723,
      "Print": 8724,
      "Ġdrinking": 8725,
      "Ġderived": 8726,
      "Lord": 8727,
      "à¤ıà¤ª": 8728,
      "utation": 8729,
      "à¤ħà¤¯": 8730,
      "à¤¼à¤¾,": 8731,
      "ĠLal": 8732,
      "Ġrulers": 8733,
      "rishn": 8734,
      "Ġmasses": 8735,
      "Dev": 8736,
      "Ġlic": 8737,
      "Ġshaped": 8738,
      "Ġtheirs": 8739,
      "Ġintended": 8740,
      "Ġsouthern": 8741,
      "Ġchargeable": 8742,
      "eath": 8743,
      "Ġtim": 8744,
      "Ġdeed": 8745,
      "ĠBel": 8746,
      "Ġ\"\"": 8747,
      "Ġperce": 8748,
      "ruit": 8749,
      "Ġtrading": 8750,
      "Ġsincere": 8751,
      "Ġrecognition": 8752,
      "Ġimpossible": 8753,
      "awaharlal": 8754,
      "Ġà¤µà¤¨à¤¸": 8755,
      "Ġpension": 8756,
      "otal": 8757,
      "Ġcontribute": 8758,
      "Ġarrang": 8759,
      "Ġrecited": 8760,
      "Ġnumerous": 8761,
      "Ġequity": 8762,
      "Ġstrategy": 8763,
      "Ġsorrow": 8764,
      "Ġtrem": 8765,
      "Ġimproved": 8766,
      "Ġcollege": 8767,
      "ĠApostle": 8768,
      "Ġhurt": 8769,
      "Ġbeneath": 8770,
      "ORS": 8771,
      "Ġupdate": 8772,
      "Ġsustainable": 8773,
      "à¤īà¤¡": 8774,
      "ureau": 8775,
      "version": 8776,
      "ĠChapter": 8777,
      "theists": 8778,
      "Ġbug": 8779,
      "Ġspecify": 8780,
      "Ġ1987": 8781,
      "Ġpillars": 8782,
      "Ġclouds": 8783,
      "DUCT": 8784,
      "?'": 8785,
      "ĠĠ": 8786,
      "itory": 8787,
      "ĠNay": 8788,
      "Ġevident": 8789,
      "Ġbacks": 8790,
      "à¤ľà¤¹à¤¨": 8791,
      "ĠBest": 8792,
      "Ġdiscussed": 8793,
      "Remember": 8794,
      "Ġcounsel": 8795,
      "Sat": 8796,
      "down": 8797,
      "Ġbone": 8798,
      "Ġtelephone": 8799,
      "LS": 8800,
      "Next": 8801,
      "Ġwaters": 8802,
      "à¤Ĺà¤ª": 8803,
      "Ġà¤¥à¤ķ": 8804,
      "à¤Ĩà¤Īà¤Ł": 8805,
      "Ġeastern": 8806,
      "Form": 8807,
      "och": 8808,
      "tr": 8809,
      "Ġabsor": 8810,
      "37": 8811,
      "Later": 8812,
      "à¤¯à¤Ł": 8813,
      "Ġvac": 8814,
      "Ġà¤¸à¤ļà¤®": 8815,
      "Ġtissue": 8816,
      "mal": 8817,
      "à¥Ľ": 8818,
      "inance": 8819,
      "à¤¼à¥Ģ-": 8820,
      "Ġjail": 8821,
      "Ġflat": 8822,
      "Ġstarts": 8823,
      "Ġsexual": 8824,
      "à¤¶à¤¹": 8825,
      "Ġanswered": 8826,
      "Ġships": 8827,
      "Ġclay": 8828,
      "Ġflower": 8829,
      "END": 8830,
      "Ġbehaviour": 8831,
      "Ġorganisations": 8832,
      "ĠSubs": 8833,
      "Ġlabor": 8834,
      "their": 8835,
      "ĠScheduled": 8836,
      "ĠSecond": 8837,
      "Ġdifficulty": 8838,
      "ĠIndustrial": 8839,
      "Click": 8840,
      "Ġtot": 8841,
      "Ġstages": 8842,
      "rie": 8843,
      "opal": 8844,
      "ificial": 8845,
      "icipal": 8846,
      "Ġshrine": 8847,
      "Ġprostrate": 8848,
      "VE": 8849,
      "ny": 8850,
      "à¥į,": 8851,
      "Ġrect": 8852,
      "ĠMos": 8853,
      "Ġaccom": 8854,
      "ranch": 8855,
      "withstanding": 8856,
      "Applause": 8857,
      "ĠNetwork": 8858,
      "Ġbaby": 8859,
      "ĠPrincipal": 8860,
      "Key": 8861,
      "edience": 8862,
      "Ġgift": 8863,
      "ishment": 8864,
      "Ġcomprehensive": 8865,
      "Ġacid": 8866,
      "Ġsets": 8867,
      "Ġplayer": 8868,
      "riends": 8869,
      "ĠAssistant": 8870,
      "Ġlinked": 8871,
      "Ġbatsman": 8872,
      "DAP": 8873,
      "Ġdiverse": 8874,
      "Ġ42": 8875,
      "Except": 8876,
      "Ġdemands": 8877,
      "ĠGarden": 8878,
      "ĠForest": 8879,
      "ĠBangladesh": 8880,
      "Ġocean": 8881,
      "Ġbag": 8882,
      "à¥ĭà¤Ĥ!": 8883,
      "à¤¼à¥ĩà¥¤": 8884,
      "ounded": 8885,
      "Ġ1988": 8886,
      "Ġsolutions": 8887,
      "à¥Ĥà¤ģà¥¤\"": 8888,
      ".âĢĵ": 8889,
      "Ġseeds": 8890,
      "Ġà¤¬à¤¹à¤¤": 8891,
      "Ġacknow": 8892,
      "Ġhypocrites": 8893,
      "OT": 8894,
      "wood": 8895,
      "Ġà¤¸à¤Ł": 8896,
      "Ġà¤¬à¤¨à¤µ": 8897,
      "ĠOf": 8898,
      "ĠJain": 8899,
      "Ġapparent": 8900,
      "Ġflood": 8901,
      "Ġbiggest": 8902,
      "rer": 8903,
      "Ġrender": 8904,
      "Ġlying": 8905,
      "amation": 8906,
      "Ġà¤¸à¤ķà¤¨": 8907,
      "Ġrecite": 8908,
      "Africa": 8909,
      "Tem": 8910,
      "Ġbefall": 8911,
      "Ġstreet": 8912,
      "Ġvim": 8913,
      "ĠNe": 8914,
      "Ġimpr": 8915,
      "Ġcrime": 8916,
      "Government": 8917,
      "Ġharvest": 8918,
      "inating": 8919,
      "à¤·à¤ª": 8920,
      "ĠPrem": 8921,
      "Ġ07": 8922,
      "ĠCommittees": 8923,
      "Ġcommunications": 8924,
      "à¤¸à¤¶": 8925,
      "Ġwilling": 8926,
      "ĠMahal": 8927,
      "Ġassembly": 8928,
      "ĠMother": 8929,
      "Ġalive": 8930,
      "Ġ1986": 8931,
      "Ġtongue": 8932,
      "Det": 8933,
      "Ġà¤²à¤¹à¤°": 8934,
      "Ġlamp": 8935,
      "ĠSee": 8936,
      "ĠPo": 8937,
      "Ġà¤ĭà¤·": 8938,
      "Ġallowance": 8939,
      "Ġcustomers": 8940,
      "Ġpropag": 8941,
      ")!": 8942,
      "à¤ľà¤®à¤¹à¤²": 8943,
      "ected": 8944,
      "Ġefficiency": 8945,
      "Ġreprodu": 8946,
      "Ġhat": 8947,
      "Ġhun": 8948,
      "Ġthread": 8949,
      "ĠSpecial": 8950,
      "ether": 8951,
      "ĠNature": 8952,
      "Ġuniverse": 8953,
      "Ġfirmly": 8954,
      "Ġfacilitate": 8955,
      "Ak": 8956,
      "à¤¨à¤¯à¤¨": 8957,
      "à¤ľà¤°à¤¤": 8958,
      "ĠGand": 8959,
      "Ġlect": 8960,
      "Â¥ÂĪ": 8961,
      "ĠUnivers": 8962,
      "Ġà¤Ĩà¤¶à¤¯": 8963,
      "Ġà¤¹à¤ķà¤¦": 8964,
      "Co": 8965,
      "à¤¯à¤Ń": 8966,
      "ĠChrome": 8967,
      "Ġfiled": 8968,
      "ĠForce": 8969,
      "à¤Īà¤¶": 8970,
      "ĠAz": 8971,
      "iri": 8972,
      "tha": 8973,
      "ĠLt": 8974,
      "Ġalarm": 8975,
      "Ġrepresentative": 8976,
      "Ġframework": 8977,
      "Current": 8978,
      "arh": 8979,
      "Ġdrown": 8980,
      "Ġhom": 8981,
      "Ġ400": 8982,
      "ographical": 8983,
      "Ġsettlement": 8984,
      "ĠRad": 8985,
      "ĠYork": 8986,
      "Ġsplit": 8987,
      "Ġwa": 8988,
      "itya": 8989,
      "Ġcharity": 8990,
      "Ġimproving": 8991,
      "Ġsisters": 8992,
      ")]": 8993,
      "Last": 8994,
      "key": 8995,
      "à¥ĩ/": 8996,
      "Ġà¤¹à¤«": 8997,
      "ona": 8998,
      "Ġhills": 8999,
      "Ġdriven": 9000,
      "Ġdegrees": 9001,
      "Ġstake": 9002,
      "Ġraw": 9003,
      "Ġcollected": 9004,
      "Ġmeetings": 9005,
      "Ġremarkable": 9006,
      "Ġpane": 9007,
      "asp": 9008,
      "Ġvessel": 9009,
      "ecutive": 9010,
      "Ġcrowd": 9011,
      "à¤¾%": 9012,
      "orous": 9013,
      "ĠNan": 9014,
      "Ġarising": 9015,
      "umes": 9016,
      "âĢĻ,": 9017,
      "ommod": 9018,
      "ounter": 9019,
      "Ġdefin": 9020,
      "Ġreasonable": 9021,
      "Ġexecutive": 9022,
      "ga": 9023,
      "à¤²à¤Ŀ": 9024,
      "Ġovercome": 9025,
      "Ġwritings": 9026,
      "justice": 9027,
      "Ġconsumption": 9028,
      "Ġcomponent": 9029,
      "Ġhousing": 9030,
      "Ġà¤Ńà¤Ĺ": 9031,
      "ĠGr": 9032,
      "Ġachievement": 9033,
      "Ġicon": 9034,
      "Never": 9035,
      "Something": 9036,
      "à¤ªà¤¢": 9037,
      "aks": 9038,
      "ĠFrench": 9039,
      "ector": 9040,
      "ĠInstitut": 9041,
      "Ġdesired": 9042,
      "Ġadvised": 9043,
      "à¤µà¤Ĺ": 9044,
      "ĠFiles": 9045,
      "Ġspoken": 9046,
      "ĠMadhya": 9047,
      "ĠIndustry": 9048,
      "orse": 9049,
      "peror": 9050,
      "Ġarrangement": 9051,
      "Ġaccompl": 9052,
      "Ġmad": 9053,
      "Ġspan": 9054,
      "Ġhardship": 9055,
      "pat": 9056,
      "à¤¬à¤ľ": 9057,
      "ignment": 9058,
      "ounds": 9059,
      "Ġfounded": 9060,
      "Ġbusy": 9061,
      "à¤²à¤Ĺà¤Ńà¤Ĺ": 9062,
      "Ġministers": 9063,
      "Ġpet": 9064,
      "Ġpull": 9065,
      "ĠAv": 9066,
      "Ġcho": 9067,
      "Ġworshipped": 9068,
      "\"\"": 9069,
      "hash": 9070,
      "Ġdescrib": 9071,
      "Ġvalley": 9072,
      "Ġpreferred": 9073,
      "à¤ªà¤°à¤®": 9074,
      "Ġusual": 9075,
      "à¤¦à¤°à¤Ĺ": 9076,
      "ĠBuddhist": 9077,
      "sub": 9078,
      "Ġnorthern": 9079,
      "pping": 9080,
      "ulty": 9081,
      "Ġgrain": 9082,
      "Ġguidelines": 9083,
      "Ġidentify": 9084,
      "Ġjobs": 9085,
      "Em": 9086,
      "High": 9087,
      "inst": 9088,
      "icted": 9089,
      "ĠDec": 9090,
      "aren": 9091,
      "Ġpalace": 9092,
      "cal": 9093,
      "Ġshel": 9094,
      "being": 9095,
      "Ġobserve": 9096,
      "Type": 9097,
      "ĠProper": 9098,
      "Ġ1930": 9099,
      "ictionary": 9100,
      "tic": 9101,
      "Ġties": 9102,
      "atell": 9103,
      "Ġshop": 9104,
      "agn": 9105,
      "ĠJesus": 9106,
      "Ġentrust": 9107,
      "Ġprominent": 9108,
      "à¤¸à¤¦à¤¸": 9109,
      "DP": 9110,
      "Ġfle": 9111,
      "Ġratio": 9112,
      "Ġincorpor": 9113,
      "ĠYear": 9114,
      "à¤¸à¤¬à¤ķ": 9115,
      "ĠSwami": 9116,
      "Ġpointed": 9117,
      "AGE": 9118,
      "Ret": 9119,
      "pelled": 9120,
      "Ġà¤ħà¤µà¤¯à¤µ": 9121,
      "ĠUnit": 9122,
      "Ġafflict": 9123,
      "Ġsites": 9124,
      "Ġ1970": 9125,
      "Ġdifficulties": 9126,
      "Ġenjoyment": 9127,
      "Ġmandapa": 9128,
      "ĠSettings": 9129,
      "Ġsympt": 9130,
      "à¤¦à¤ķà¤¤": 9131,
      "iche": 9132,
      "Ġcompetition": 9133,
      "Ġacting": 9134,
      "Ġsentence": 9135,
      "Ġinspiration": 9136,
      "ĠRamayana": 9137,
      "ham": 9138,
      "Ġelim": 9139,
      "Ġonto": 9140,
      "Through": 9141,
      "Ġedge": 9142,
      "Ġcompletion": 9143,
      "Ġharmony": 9144,
      "ĠEnter": 9145,
      "AND": 9146,
      "list": 9147,
      "Ġà¤¸à¤¤à¤°": 9148,
      "à¤«à¤ķ": 9149,
      "ĠPri": 9150,
      "ĠRet": 9151,
      "Ġvia": 9152,
      "iel": 9153,
      "Ġ1995": 9154,
      "ĠProvince": 9155,
      "ĠNoble": 9156,
      "Ext": 9157,
      "Ġinternet": 9158,
      "Ġmixed": 9159,
      "Ġchain": 9160,
      "à¤Ĩà¤°à¤ı": 9161,
      "Ġoccurs": 9162,
      "Ġpreview": 9163,
      "Ġappell": 9164,
      "ĠIsraeli": 9165,
      "Ġgradually": 9166,
      "Ġà¤¨à¤°à¤®": 9167,
      "Ġà¤¤à¤¸à¤¬": 9168,
      "Ġchapter": 9169,
      "Ġscen": 9170,
      "Ġ1971": 9171,
      "Config": 9172,
      "cons": 9173,
      "Ġdiet": 9174,
      "Ġexch": 9175,
      "met": 9176,
      "Ġfet": 9177,
      "Ġthor": 9178,
      "ĠBAR": 9179,
      "reek": 9180,
      "Ġmetal": 9181,
      "oving": 9182,
      "enous": 9183,
      "à¤ļà¤¢": 9184,
      "Ġallot": 9185,
      "Ġmirac": 9186,
      "Ap": 9187,
      "Aud": 9188,
      "rahim": 9189,
      "juta": 9190,
      "Ġtoler": 9191,
      "entle": 9192,
      "Ġà¤ĩà¤¶": 9193,
      "ĠLink": 9194,
      "Ġpermitted": 9195,
      "ressing": 9196,
      "ĠInf": 9197,
      "Ġregulations": 9198,
      "à¤Ĭà¤¦": 9199,
      "Ġyellow": 9200,
      "Ġdetail": 9201,
      "Ġrevelation": 9202,
      "Ġcomplaint": 9203,
      "cul": 9204,
      "cry": 9205,
      "à¤¸à¤ĸ": 9206,
      "Ġwicked": 9207,
      "à¤«à¤°à¤®": 9208,
      "Ġolder": 9209,
      "Ġcontinuous": 9210,
      "Ġà¤ħà¤Łà¤²": 9211,
      "Ġduration": 9212,
      "Ġdatabase": 9213,
      "Ġà¤¶à¤¹": 9214,
      "ĠSik": 9215,
      "Ġproclaim": 9216,
      "Ġwear": 9217,
      "ĠAssessing": 9218,
      "Ġpalm": 9219,
      "Ġdemonstr": 9220,
      "esterday": 9221,
      "Ġease": 9222,
      "urch": 9223,
      "ĠJohn": 9224,
      "Ġ03": 9225,
      "Ġaffair": 9226,
      "ĠGupta": 9227,
      "Ġstopped": 9228,
[...]
